[PAD]
[UNK]
[CLS]
[SEP]]
[MASK]
<S>
<T>
!
"
#
$
%
&
'
(
)
*
+
,
-
.
/
0
1
2
3
4
5
6
7
8
9
:
;
<
=
>
?
@
[
\
]
^
_
`
a
b
c
d
e
f
g
h
i
j
k
l
m
n
o
p
q
r
s
t
u
v
w
x
y
z
{
|
}
~
¡
¢
£
¥
§
©
ª
«
¬
®
°
±
²
³
´
µ
¶
·
¹
º
»
¼
½
¾
¿
×
ß
æ
ð
ø
þ
đ
ħ
ı
ł
ŋ
œ
ſ
ƒ
ǀ
ǃ
ǝ
ɑ
ɔ
ɘ
ə
ɛ
ɡ
ɨ
ɪ
ɲ
ɾ
ʀ
ʃ
ʊ
ʒ
ʔ
ʰ
ʷ
ʹ
ʻ
ʼ
ʽ
ʾ
ʿ
ˈ
ː
ˑ
α
β
γ
δ
ε
ζ
η
θ
ι
κ
λ
μ
ν
ξ
ο
π
ρ
ς
σ
τ
υ
φ
χ
ψ
ω
а
б
в
г
д
е
ж
з
и
к
л
м
н
о
п
р
с
т
у
ф
х
ц
ч
ш
щ
ъ
ы
ь
э
ю
я
є
і
ј
њ
ћ
ә
ա
բ
գ
ե
է
թ
ի
լ
կ
հ
ղ
մ
յ
ն
ո
պ
ս
վ
տ
ր
ց
ւ
א
ב
ג
ד
ה
ו
ז
ח
ט
י
כ
ל
ם
מ
ן
נ
ס
ע
פ
צ
ק
ר
ש
ת
،
ء
ا
ب
ة
ت
ث
ج
ح
خ
د
ذ
ر
ز
س
ش
ص
ض
ط
ع
غ
ف
ق
ك
ل
م
ن
ه
و
ى
ي
پ
چ
ک
گ
ہ
ی
अ
आ
क
ख
ग
च
ज
ट
ड
ण
त
थ
द
ध
न
प
ब
भ
म
य
र
ल
व
श
ष
स
ह
ा
ि
ी
ो
ॐ
আ
ক
গ
চ
জ
ট
ত
দ
ন
প
ব
ম
য
র
ল
শ
স
হ
া
ি
ী
ে
ਰ
ਾ
க
ச
ட
த
ந
ன
ப
ம
ய
ர
ற
ல
ள
வ
ா
ி
ு
ெ
ே
ை
ర
ు
ಕ
ಗ
ನ
ರ
ವ
ಾ
ು
ം
ക
ട
ത
ന
പ
മ
യ
ര
ല
വ
ാ
ി
േ
ක
න
ම
ය
ර
ව
ස
ා
ෙ
ก
ข
ค
ง
จ
ช
ด
ต
ท
น
บ
ป
พ
ม
ย
ร
ล
ว
ศ
ส
ห
อ
ะ
า
ำ
เ
แ
โ
ไ
་
င
မ
ာ
ေ
း
ა
ბ
გ
დ
ე
ვ
თ
ი
კ
ლ
მ
ნ
ო
რ
ს
ტ
უ
ᄀ
ᄂ
ᄃ
ᄅ
ᄆ
ᄇ
ᄉ
ᄊ
ᄋ
ᄌ
ᄎ
ᄏ
ᄐ
ᄑ
ᄒ
ᅡ
ᅢ
ᅣ
ᅥ
ᅦ
ᅧ
ᅨ
ᅩ
ᅪ
ᅬ
ᅭ
ᅮ
ᅯ
ᅱ
ᅲ
ᅳ
ᅴ
ᅵ
ᆨ
ᆫ
ᆯ
ᆷ
ᆸ
ᆺ
ᆼ
ក
រ
ា
ᴗ
‐
‑
‒
–
—
―
‘
’
‚
“
”
„
†
‡
•
…
′
″
₂
€
₱
₴
₹
ℓ
№
™
←
↑
→
↔
⇒
∈
−
∞
∨
∴
≈
≡
≤
≥
⋅
─
━
│
├
●
★
☆
♠
♦
♭
♯
⟨
⟩
⣿
、
。
《
》
「
」
『
』
〜
あ
い
う
え
お
か
き
く
け
こ
さ
し
す
そ
た
ち
っ
つ
て
と
な
に
の
は
ひ
ふ
へ
ま
み
め
も
ゃ
や
よ
ら
り
る
れ
わ
を
ん
ア
ィ
イ
ウ
ェ
エ
オ
カ
キ
ク
ケ
コ
サ
シ
ス
セ
タ
チ
ッ
ツ
テ
ト
ナ
ニ
ノ
ハ
ヒ
フ
ヘ
ホ
マ
ミ
ム
メ
モ
ャ
ュ
ョ
ラ
リ
ル
レ
ロ
ワ
ン
・
ー
一
七
三
上
下
不
世
丘
东
中
丸
主
久
之
九
也
乡
事
二
五
井
亚
京
人
仁
代
伊
会
伝
伯
位
何
作
你
使
侯
保
信
傳
元
光
克
全
八
公
六
兵
典
内
出
分
利
前
劉
力
加
動
化
北
区
十
千
华
南
博
原
口
古
可
台
史
司
合
吉
同
名
后
君
吳
周
命
和
唐
嘉
四
回
园
国
國
園
團
土
在
地
城
基
堂
報
場
士
夏
外
多
夜
夢
大
天
太
夫
奇
女
好
如
子
字
孝
学
孫
學
宇
守
安
宗
官
定
宮
家
容
富
寶
寺
小
少
尔
尼
尾
山
岩
島
川
州
工
巴
市
帝
師
平
年
府
康
廣
建
式
張
影
後
徐
德
心
志
忠
思
性
情
想
愛
成
我
戦
房
所
手
拉
摩
政
教
文
斯
新
方
族
日
昌
明
星
春
昭
是
時
景
曲
書
曹
最
會
月
有
朝
木
本
朱
李
村
来
東
松
林
校
梅
森
楊
業
樂
歌
正
武
氏
民
水
永
江
沙
河
治
泉
法
波
泰
洞
津
洪
流
海
清
港
源
漢
無
版
物
特
玉
王
球
理
生
田
男
町
界
白
百
的
皇
相
真
知
石
研
社
神
福
秀
科
究
空
立
章
第
等
紀
經
縣
羅
美
義
老
者
聖
育
胡
自
興
舞
良
色
花
英
華
葉
蕭
藤
行
術
街
衛
西
見
言
記
詩
語
論
语
谷
賀
超
趙
路
軍
通
道
達
那
郎
郡
部
都
里
重
野
金
镇
長
門
開
間
阿
限
院
陳
陵
陽
雄
集
雲
電
青
面
韓
音
頭
風
飛
館
香
馬
駅
马
高
鬼
魔
黃
黄
龍
ꜣ
！
（
）
，
－
：
～
##a
##k
##4
##2
##l
##o
##b
##u
##r
##i
##e
##h
##y
##t
##m
##n
##g
##d
##v
##p
##c
##s
##f
##3
##8
##7
##9
##q
##ł
##w
##0
##6
##j
##x
##ь
##м
##е
##ш
##а
##н
##г
##ø
##ı
##5
##1
##в
##о
##д
##у
##×
##z
##ி
##ர
##ு
##ம
##ந
##த
##र
##म
##ा
##न
##द
##−
##ข
##า
##พ
##ร
##ะ
##ส
##เ
##ม
##к
##ل
##م
##ع
##و
##ا
##ت
##и
##ы
##с
##ε
##ξ
##ι
##ο
##κ
##ρ
##α
##τ
##υ
##ς
##ա
##ր
##թ
##ի
##ᅧ
##ᆫ
##ᄀ
##ᅵ
##ᄅ
##ᅳ
##ᆯ
##т
##æ
##ᅥ
##ᄉ
##ᄋ
##ð
##л
##р
##व
##ि
##ज
##ß
##տ
##լ
##ց
##ハ
##ル
##シ
##ア
##ω
##λ
##ᆼ
##ᄎ
##ᅮ
##ц
##ɛ
##ย
##อ
##ᅩ
##র
##ম
##হ
##স
##þ
##°
##η
##я
##د
##س
##ر
##ي
##ב
##ל
##י
##ת
##ד
##ו
##ن
##ح
##い
##て
##き
##た
##σ
##ס
##と
##り
##に
##ल
##ब
##ר
##כ
##ז
##ɪ
##ո
##ւ
##մ
##ש
##ᆷ
##χ
##ν
##ᅡ
##ᄃ
##ᅢ
##®
##ʼ
##б
##ک
##ע
##ט
##נ
##ק
##ᅦ
##ب
##ค
##บ
##ล
##ช
##ъ
##π
##ー
##ト
##ワ
##ク
##ス
##ბ
##ق
##ة
##ش
##±
##э
##ी
##श
##ᄇ
##п
##з
##گ
##ᄌ
##μ
##ى
##テ
##マ
##ᄆ
##º
##ж
##վ
##ե
##կ
##ն
##і
##х
##ট
##গ
##য
##া
##ল
##ি
##θ
##ᅭ
##œ
##خ
##א
##ה
##ج
##→
##চ
##ত
##ष
##त
##ə
##ɾ
##ː
##る
##ン
##ケ
##ਾ
##²
##শ
##ব
##ন
##দ
##פ
##ם
##ᆨ
##½
##ು
##ನ
##ʿ
##ា
##រ
##ក
##´
##भ
##ა
##უ
##ტ
##ი
##ध
##ो
##य
##ه
##ट
##ю
##ს
##～
##थ
##ᄐ
##ᄂ
##स
##ෙ
##ස
##ᆸ
##ſ
##ッ
##チ
##ャ
##の
##フ
##ラ
##च
##ख
##ᄒ
##ч
##ɔ
##ᅯ
##غ
##צ
##タ
##پ
##ی
##น
##แ
##ก
##ง
##ว
##ท
##ห
##क
##ث
##מ
##ɨ
##ক
##δ
##レ
##コ
##ミ
##ュ
##ニ
##ィ
##ك
##リ
##ᅲ
##ս
##ղ
##ʾ
##γ
##ड
##ф
##ʀ
##ന
##ј
##ᅪ
##イ
##ე
##რ
##ʰ
##ে
##প
##ח
##ف
##է
##щ
##đ
##セ
##ロ
##ᄑ
##β
##ま
##す
##ग
##φ
##ћ
##ო
##ლ
##ნ
##თ
##ᅨ
##ʷ
##ナ
##カ
##բ
##し
##み
##わ
##さ
##ᆺ
##ص
##¬
##か
##ら
##オ
##メ
##ツ
##ز
##ʻ
##れ
##ョ
##ウ
##հ
##ג
##ไ
##ด
##ต
##จ
##ำ
##ா
##க
##კ
##ვ
##ய
##ன
##ல
##ே
##ာ
##ெ
##ן
##න
##ර
##ය
##ण
##ు
##მ
##ᅴ
##ರ
##ಕ
##ಾ
##∈
##њ
##ء
##™
##ह
##ศ
##ǝ
##⋅
##ŋ
##³
##く
##ħ
##ర
##জ
##ホ
##ವ
##ヒ
##は
##お
##प
##ᅣ
##โ
##ʔ
##ʹ
##ச
##ற
##வ
##မ
##こ
##ん
##う
##ʊ
##ป
##ေ
##☆
##っ
##な
##つ
##モ
##ノ
##ை
##サ
##დ
##ᅬ
##ী
##₂
##ව
##ط
##↔
##ා
##ම
##ட
##★
##ˑ
##け
##چ
##ζ
##գ
##യ
##ാ
##ɡ
##キ
##ਰ
##ェ
##⣿
##あ
##ち
##ᄏ
##¾
##¼
##ᄊ
##ɘ
##ᅱ
##や
##も
##ʽ
##ゃ
##そ
##ள
##ہ
##ˈ
##ǀ
##ム
##պ
##ℓ
##ә
##ψ
##♭
##め
##പ
##വ
##ത
##ി
##ʃ
##ക
##ヘ
##ひ
##ක
##ப
##ട
##≈
##င
##း
##ふ
##ذ
##յ
##≡
##ꜣ
##←
##¹
##ര
##≤
##を
##え
##£
##↑
##エ
##മ
##ല
##ಗ
##ض
##¢
##€
##േ
##µ
##є
##ം
##გ
##ɑ
##©
##∞
##ǃ
##●
##♦
##よ
##へ
##♠
##ʒ
##♯
##¥
##ɲ
##ƒ
##अ
##≥
##∴
##│
##ª
##─
##⇒
##₹
##আ
##₱
##━
##₴
##आ
##∨
##ᴗ
##ॐ
##№
##he
##er
the
##in
##on
##an
##or
##ed
##es
##en
##at
##ar
in
##al
an
of
##is
##it
##as
##ic
##ing
and
##ion
##ou
to
##re
##om
##il
##el
##ent
##ol
##am
##ec
##st
##et
##ur
##ac
th
##ad
st
19
##le
##ro
on
was
for
##iv
##ir
##ers
##ig
##ation
##ot
re
as
##id
20
##ay
##ter
##ly
al
is
##em
##ut
##ch
##ow
##im
##ist
fr
##ith
##us
he
##th
with
ch
##and
by
be
##ul
##ag
at
it
con
wh
##un
##um
##os
##ce
##op
com
##oun
un
##her
##ain
##oc
##ver
##est
pro
from
de
##ct
##av
##ri
that
##ap
se
##ian
##ess
##ab
##all
pl
##ect
##od
ne
ar
his
##ber
##ity
##ia
ex
##art
or
##ies
le
##ate
en
##ill
##if
##ard
##ak
pr
##igh
su
##ort
sp
200
##ud
tr
##ip
sh
##our
##ov
##ich
##ant
##ld
201
##ary
##ated
##se
##ish
##ear
##mer
##ge
##ive
are
##ment
##ere
##ong
##ell
##ial
##ast
##ie
cl
##pp
##og
##fer
##ks
##ue
wor
##ust
##ine
##ub
##ound
##ame
##gh
comp
br
##ight
af
##ore
were
18
gr
##so
##ack
##ces
##ions
##ost
new
mar
##end
##ical
##pt
play
also
##ord
which
rec
sc
not
ad
ser
##ign
##tern
199
##ther
her
man
fir
whe
##qu
##uc
col
this
##per
res
had
ac
she
##age
##der
##ass
##ure
inc
##ous
ab
##ough
first
##ire
##ans
car
part
##ave
##ra
##ry
##ok
##ric
##hed
cont
##ang
##ember
cent
##out
te
int
##iz
all
##ount
pe
##man
##ide
##ome
go
comm
tw
##ond
one
us
has
##ory
year
ind
##land
##ational
##ice
##ations
but
after
##feren
bo
##orn
sch
##act
co
el
ag
##amp
their
its
##mp
amer
ro
##ult
can
rep
rel
##ach
##ater
americ
##ru
##ey
##ib
tim
fil
198
per
##ace
##ition
##own
##wn
app
who
##ould
fe
they
##ree
##ik
##ail
jo
##ool
dis
par
des
##ual
we
##ff
act
##ates
##ath
referen
##ited
##ens
pol
film
##aw
##rit
off
##ople
fin
two
ed
197
##ubl
##ents
me
references
##ivers
other
##ite
##ence
american
bec
##00
up
##gr
bl
have
##lud
202
##ild
##ance
##les
##ors
mus
##ball
##ade
school
##ts
##oll
people
ev
out
ass
ph
##iss
fl
fo
dec
##ward
bas
sec
##ile
includ
lin
##uring
##ug
reg
##ied
pre
eng
##io
kn
over
196
been
gen
##for
serv
##ings
##hn
##we
am
time
bu
##ely
sou
##te
min
may
##hip
nor
##ose
count
univers
when
##ock
##way
##able
##eld
##urn
war
##old
##ason
##ah
sy
hist
mon
##ft
there
dr
ear
publ
pres
##ury
##ished
##ics
##az
##als
into
during
him
##ision
##ton
work
att
no
dist
win
exp
##gan
foot
##ick
##one
bro
gre
gu
loc
bet
##vel
cons
prod
team
world
acc
##ict
under
art
##ake
national
##ral
university
##ames
so
char
stud
##int
ma
##ale
elect
##eas
med
##olog
195
united
##ction
194
##cc
high
will
po
est
##rib
##ev
would
record
##oup
##anc
##ists
##ally
##ep
##ious
sub
football
state
more
ret
sing
17
alb
##au
##ix
thr
inter
##ons
##ood
##ife
found
season
trans
again
##ily
##ternal
##ank
most
air
##oth
##att
south
##let
##ince
city
only
where
##rap
some
form
##ork
qu
how
born
sa
about
second
##air
##hes
##ollow
spec
##form
nov
years
prov
imp
##ier
later
follow
external
sm
##oci
links
back
three
end
def
gener
cr
##ities
do
rem
century
##emb
states
inst
pop
dire
##ween
10
##ann
##ph
players
then
bir
between
##ating
you
them
dep
mov
##up
through
193
song
north
writ
ap
cap
##ular
ter
album
##ative
##enn
##vern
##lish
fam
##son
met
##sp
group
bar
##ery
rev
op
##aus
##ement
day
music
##ina
releas
##res
16
##ouse
liv
sur
##fore
arm
see
15
compan
jun
govern
while
##ys
##ague
##itt
made
series
direct
inv
##0s
wom
num
set
award
john
12
##iam
ann
##lo
ge
##enc
la
aust
bel
##ific
##ograp
four
history
cre
sw
lar
##ss
champ
used
well
care
call
offic
192
ger
list
known
than
such
##erson
##ike
oper
##ress
##ather
##ont
##ield
##ional
##ten
league
mod
##hy
before
##ley
##ject
lead
intern
##ounc
id
##ident
##til
##und
##are
club
lo
tel
##oss
being
##igin
polit
main
add
supp
##ower
##bs
##ths
death
mat
##rict
##other
##ese
jan
men
life
brit
##ures
##iew
became
191
sl
estab
right
str
show
##ket
##velop
prof
##els
origin
##uss
##ern
many
const
##ase
aut
mil
div
har
long
##ise
im
##ism
cro
##tain
cor
##ope
both
11
public
open
build
##its
these
##led
##red
develop
commun
west
including
##erv
ju
##ins
against
em
early
sign
##ments
##ning
house
chr
own
##ind
##ourn
rece
class
game
##fl
sim
cal
##ever
county
town
colle
former
##iver
progr
champions
##ection
##urch
run
international
my
law
until
women
##co
coll
13
head
##ai
red
appear
14
desc
dem
king
##amed
career
cur
cour
##ull
##ke
##yp
produ
##ole
##ians
##ll
family
##ived
leg
##eng
aug
var
since
austral
german
##hen
design
##elf
york
sever
av
##stem
contr
district
following
oct
name
sept
port
games
miss
however
##ty
bus
march
##ution
films
won
##min
august
number
##by
##ural
company
system
organ
old
##ner
val
area
british
##uary
##ister
start
september
ep
canad
land
##ene
associ
##ash
eur
memb
ext
##ober
##ott
maj
child
##xt
##bo
2006
##ology
##ently
##ium
##ange
released
october
played
now
##ril
general
based
stre
##inc
##ized
just
person
members
government
mid
star
##icip
educ
21
feat
arch
june
dif
conc
did
january
##ae
if
##iet
college
##ron
##ants
align
station
##ior
del
sk
band
##ected
july
several
order
down
return
english
left
any
championship
pass
program
##uced
pat
april
called
camp
##ute
##ets
##ane
##ful
best
contin
place
telev
mag
like
##port
tit
##ruct
##ined
##ually
##ved
major
mill
profess
##osed
home
near
hel
##bert
east
same
vill
adv
ever
##ains
##ling
je
##ause
##ues
november
result
manag
##ert
bre
sci
living
##eter
rad
rail
000
center
##aking
december
##ives
sport
park
television
line
##ime
party
ent
mo
##ove
wal
##ital
2007
tri
##row
##ained
che
##ark
member
##ren
births
road
ra
ii
gl
church
each
soc
could
said
##ired
tre
thir
along
final
mu
ang
##ulation
##ve
support
##yn
prom
##ages
use
phil
190
##ised
resp
##ator
##br
##lished
lang
##sc
##ible
##ilt
europe
##por
sum
president
repres
##ek
vol
##ider
##ially
compet
feb
##yle
##apan
##ench
##ham
##ony
##ography
what
##cept
top
histor
pa
christ
##ices
ec
small
##gin
around
2005
hand
##ger
##ruary
february
ob
##ines
local
eff
##ats
began
geor
pri
japan
##yl
##ided
##ps
##aint
batt
complet
##hing
##ought
named
##ble
##ility
mount
black
##ued
##hor
sen
ste
##augh
##ured
arr
far
##ett
##ended
2014
prev
##aced
tec
2021
rom
occ
short
book
great
prot
emp
way
##sh
vers
river
##app
##uck
hum
last
island
represent
2008
##ode
##ison
189
##get
held
due
##ung
##ds
service
post
sal
sol
##eder
rest
ant
ir
##ama
2022
mer
disc
established
##che
power
##atic
six
##aving
30
took
pos
report
##ically
25
##ata
langu
##ana
##ret
stand
mun
cup
##aster
2004
##iness
##ford
##ival
afric
##acks
another
son
##eal
##ms
##adem
present
milit
russ
water
2010
french
ital
super
2009
##que
san
##lex
located
cast
2011
event
bi
##side
deb
william
doc
spe
single
##rop
youn
2015
mal
because
##itions
player
typ
five
dav
##ax
##aining
##pl
##ster
hon
vict
lab
techn
army
division
ke
published
fur
tour
hal
##ards
succ
net
died
cult
##idge
##gest
vis
fre
##ino
third
##ipp
turn
##ondon
cond
##ried
built
mor
fac
##ars
nat
london
field
served
##me
roy
##cl
academ
engine
##ne
nort
success
counc
curr
188
2012
official
ele
stat
describ
building
##ara
vide
association
crit
rock
##onom
##ored
business
uk
2000
##alth
##ides
side
children
##ety
##ob
2003
##aff
##ission
kill
addition
##ille
2013
country
even
round
still
##bur
vi
##gy
style
##ows
author
education
##ink
##ency
##af
hol
conf
22
white
population
24
##ption
instit
resear
##omin
indian
##ief
received
##han
##ze
bur
enter
depart
##rod
conv
tem
##ring
court
##ays
project
2002
gold
##col
press
large
##omet
military
2020
##estern
##ately
2001
epis
##ified
times
##akes
##raft
##aces
street
2016
non
##ention
grand
council
appro
pal
li
within
##umn
##par
##ody
conn
giv
don
##ged
##uk
23
track
differ
##oks
real
soci
special
vir
accord
father
union
##med
equ
original
repl
##acter
squ
2019
common
species
central
good
##aim
##ones
broad
##ani
base
works
cle
language
iss
read
command
##ler
every
mich
sil
requ
among
di
que
##amb
det
##cess
trad
journ
bill
2018
##iter
##ization
186
oly
alth
village
video
very
prim
led
although
aff
male
included
##ee
development
olymp
du
187
##ked
social
director
inf
opp
cat
england
republ
##umb
##day
ill
2017
lim
tur
ref
##ma
further
##ying
sel
ve
ber
point
##ches
##ient
mc
##iod
sev
consider
railway
hall
level
election
perform
announc
eas
exper
activ
##ness
help
radio
##ument
make
calif
rich
royal
##ef
municip
story
##na
different
californ
fri
australia
according
sold
community
municipal
include
records
fact
pur
rout
tot
republic
songs
late
mot
nav
production
ship
##oint
light
##ald
those
california
age
cross
period
political
research
western
much
##uct
deaths
chang
1999
character
##ka
moved
##lin
##ges
civ
##osp
lat
mur
politic
##ched
stor
young
init
##ground
brother
friend
title
##tt
26
previous
##ration
grad
sett
##ively
mass
came
next
cover
vo
take
##line
##ament
mart
week
medal
km
million
muse
produced
##ecut
28
2023
tal
dou
region
##ruction
incre
##ha
econom
often
##ted
27
##ica
##ops
##ming
dev
written
##work
night
##hern
##omb
jud
version
fun
james
went
canada
1998
poss
inform
##ects
beh
paul
lou
site
described
australian
gir
##ries
live
##hel
expl
establish
##ots
##ania
canadian
role
##itar
20th
prop
professional
##loy
society
##ney
free
museum
##wards
##irc
having
office
##ribut
##ances
qual
sit
refer
##ico
host
100
import
hill
green
ten
need
started
george
##dom
surv
indust
summer
fire
david
india
awards
hig
mem
den
voc
feder
albums
thom
##ced
review
northern
##ady
cam
##ky
fem
european
##acy
perfor
full
flor
arg
##cast
cy
hy
civil
board
announced
human
##ius
tv
##rew
cas
##epend
allow
given
test
1997
debut
##ature
der
vot
sour
litt
independ
sent
total
few
force
lost
wr
##ize
mult
invol
##ago
##ilar
sound
##ves
##field
ins
los
cer
wood
franc
various
##ross
1996
students
promot
##ael
pet
##ena
admin
##uel
ver
coach
ham
##ocr
using
29
struct
##go
department
america
love
france
introd
##anish
er
##ared
process
##ached
##ya
##ours
big
popular
##ners
##li
little
without
books
opened
sports
##ville
circ
defe
space
look
commission
health
##ints
##rote
mel
though
##itor
sat
##raw
never
modern
bg
half
appoint
journal
##ris
souther
comb
185
schools
personal
mad
hor
performan
##iment
science
services
##ences
lib
fall
ball
trav
battle
tom
##color
match
##cer
tex
invest
similar
girl
alumn
sn
become
1995
priv
southern
days
control
##lic
prem
commit
anim
wat
##be
bgcolor
##ple
chief
webs
##ech
front
somet
liter
events
wrote
joined
##ased
##esh
##empt
get
tro
pan
tor
dest
kingdom
infl
claim
created
dam
##mon
returned
teams
##hic
31
##nd
minister
1994
princ
worked
##ida
bal
mother
alumni
know
##ators
sam
jew
hold
elected
sem
roman
bank
constit
fell
##iction
##bor
##den
ur
produc
fest
fight
##aken
low
secret
##reek
kar
##ference
position
##olic
attack
##oy
married
##dle
administ
pract
hot
ath
phys
##gar
robert
mary
mac
market
cop
1992
release
##ological
jose
ground
background
god
should
mex
view
police
##hib
50
##imin
wil
examp
democr
rob
away
assist
wall
parl
##ivid
##ki
##ogn
phot
sun
et
theat
website
##itz
##ape
japanese
guitar
once
news
daugh
cath
##ca
founded
engineer
##cher
chart
interest
race
##ense
##mar
heav
gar
##olution
scott
##xim
playing
mark
product
recorded
hen
continued
italian
1993
angel
germany
media
##oph
dut
ident
basket
particip
individ
fund
african
proper
attempt
bay
plan
parliam
40
##burg
route
##eth
archit
transport
body
mix
enc
##sequ
##unt
partic
##wood
magaz
paint
##aper
episode
making
less
cost
lake
parliament
washing
novel
ren
buildings
russian
ru
case
fort
wind
gun
key
##ele
##gether
##ender
##ano
chin
together
##anch
##rug
meet
hard
coast
1991
footballers
##ending
##ened
1990
rac
put
information
individual
compos
##rov
tradition
184
sus
##self
arts
athlet
washington
tourn
relations
committe
##arch
aud
alex
wife
himself
hous
lu
notes
fif
##ective
stage
##ga
others
##iers
##ract
bri
basketball
##ari
forces
academy
##ship
chair
step
groups
grow
province
artist
construction
must
relig
appeared
##ump
considered
areas
execut
##used
working
china
caus
let
esp
want
begin
points
thomas
##hod
##ither
rul
fa
##ned
eastern
brown
##aves
pers
ey
completed
room
##isc
does
##rain
hosp
signed
##gress
##ala
companies
eight
gradu
michael
mater
##ably
##isl
##ili
text
influ
ho
victor
originally
cit
appointed
viol
desp
centre
##wer
##eg
##urs
directed
contract
##lement
seven
gall
##ban
christian
past
1989
##berg
charles
across
upon
ps
ul
results
##aged
offer
pit
##ij
find
staff
belie
##reg
##ker
middle
##ishing
stations
deg
##aign
##ead
hom
institute
ly
treat
fail
rank
term
chap
laun
current
important
##nel
data
obs
##oming
stri
blue
mic
color
ven
places
##omp
committee
cand
mean
##cover
1988
louis
broadcast
formed
##ona
##oor
mont
##hem
say
network
##aj
express
ire
tar
strong
artic
spanish
fer
env
chann
carol
developed
libr
##idence
pen
reb
recogn
texas
##nes
##uf
##iding
##hi
##ements
campaign
hit
nar
particular
exist
sea
birth
rights
##ification
##ising
architect
virgin
mr
ireland
penn
frank
reported
##ta
##ams
here
ben
peter
avail
##aker
##ways
##ids
daughter
##bc
artists
assemb
pot
##king
your
colon
type
chinese
tax
access
##ota
183
catholic
##olf
1987
##ience
model
saw
interv
performance
africa
##itted
sex
anc
championships
festival
training
##ston
##ensive
ach
##imes
sho
##ector
dig
employ
bud
##nt
1986
signific
##ba
scre
21st
despite
separ
fore
##itive
forest
earl
ol
##off
writers
regular
baseball
##ander
anal
commer
bul
cell
tournament
private
card
##wor
##craft
agre
acqu
corn
musical
singles
##less
##ula
action
chic
cho
1984
##iting
goal
gave
bow
come
saint
zeal
##iron
foc
van
transl
##uation
example
##ique
plant
##tor
richard
studies
##aps
bridge
##of
sant
1985
##enth
gard
alm
taken
fut
##ength
aver
##iving
kh
theatre
master
squad
throughout
paris
woman
smith
culture
##edy
federal
plat
eventually
liber
municipality
section
killed
1980
1983
##yr
##aries
turk
box
##uter
magazine
oh
zealand
available
material
lear
##ceed
bad
professor
swed
##asc
eth
fig
##ume
female
sand
followed
ran
##aut
hospital
##ograph
##atives
##uit
mos
##tr
scot
cut
range
##omm
##cle
our
pay
exc
actress
reserv
too
##ockey
bor
seen
##iec
francis
independent
stop
##ado
vocals
ox
bat
performed
legisl
months
study
##str
hu
fle
##elling
##hood
##aur
lower
captain
kore
##ex
bord
conference
primary
subsequ
conserv
##ini
successful
congress
got
quar
environ
sir
##atory
poet
##ush
neigh
1982
1979
senior
features
rug
heart
method
instead
studio
##iff
##ria
boy
##oon
shar
##my
aircraft
conduct
includes
medical
peak
##utes
competition
##odes
food
singer
change
##ections
esc
scient
movement
##ateg
polic
fourth
finished
##to
pun
##acher
##atri
capt
discover
lord
##ada
##ii
shows
clos
inj
1981
##ilities
politician
##ror
behind
governor
wid
##ergy
trib
##airs
ha
##ript
##ination
##ems
ca
sov
close
##ential
bish
##elt
ban
##lands
edition
leading
##ola
winning
natural
historic
##rael
territ
proble
anti
writer
##men
prior
henry
stad
braz
leaders
technology
valley
##za
featured
designed
chicago
1st
establishments
sug
##idents
neg
##roy
saf
transfer
loss
##over
##istan
cov
##head
1976
1978
document
mountain
1972
collection
rap
1974
##aches
manager
decl
wa
drum
soon
##ability
soviet
remained
entire
above
able
largest
face
speed
either
earth
##ura
library
jack
israel
insp
capital
brand
draw
introduced
hockey
##ny
today
##ude
related
##oke
management
foreign
imm
##pr
florida
##stand
##de
##ift
minor
happ
cric
officer
replaced
assembly
georg
critic
achie
sar
##iation
35
##ych
deal
candid
1970
fav
prison
significant
consist
mission
ov
organization
least
channel
charact
characters
##ested
##ray
nomin
matt
bass
gro
airport
leader
stev
brazil
currently
surr
tenn
##enced
writing
1975
awarded
irish
emer
1977
environment
going
notable
respons
quest
olympics
##ios
princip
dark
atl
usually
added
##rd
plann
minist
break
dom
outside
producer
##idae
rugby
##apt
via
historical
scored
##ights
italy
actor
adm
1973
##gen
suggest
commerc
exhib
reached
##ware
almost
##la
##fic
mexico
soft
amb
kr
involved
1968
##9e
month
columb
virginia
##ita
##erous
schol
pac
cricket
glo
inn
##pre
##band
19th
memor
##play
nec
perc
cred
wild
ros
previously
iv
corpor
mach
systems
##sel
democratic
dead
##ades
1969
trade
investig
ord
1971
silver
fly
##olk
thus
grant
shot
drama
unit
thought
financ
occup
##igned
##igr
account
##medi
olympic
die
181
##hire
##tim
operations
fair
navy
da
##aching
##well
pil
##oma
standard
##igan
future
clim
honor
##icated
##har
stated
listed
##ck
##ella
multip
##urity
degree
regional
coup
scor
182
expatri
additional
owned
gal
##ufact
##agon
accept
angeles
stadium
##ees
guard
highway
martin
lie
manufact
##ym
32
newsp
ukrain
beginning
tun
travel
deter
carolina
##ox
ice
placed
##ulated
subject
industry
log
##ends
##rian
keep
##pper
joseph
pred
organiz
bab
##ylv
##ette
spring
reason
##istics
wales
##ped
closed
chall
arab
countries
decided
1967
domin
dar
dro
##ican
jim
sources
rather
object
cab
##yan
##lam
##era
student
##orm
vehic
reading
average
empire
observ
##lor
youth
train
quarter
##ko
self
##bal
premier
parts
meas
elections
limited
500
hur
native
hung
##iano
spir
##ental
##ylvania
money
##tar
gh
screen
selected
##writ
jer
##west
tell
##antic
personnel
provided
##oles
##porary
higher
towards
taking
1964
executive
commercial
##ites
ok
energy
1966
stone
##eople
##uction
prince
##hest
queen
##ribution
seasons
##wa
register
wrest
contribut
cd
active
##abor
tou
web
running
cele
occur
##here
operation
politicians
surf
1945
voice
brought
mir
course
defeated
editor
##arily
burn
1965
##isher
murder
pak
jewish
purch
effect
changed
##istic
clear
##kn
think
##road
##ffer
interview
##iro
goals
penns
##back
foundation
date
wing
mec
greek
attended
regard
whose
os
effort
anth
##ja
##board
destroy
##ersey
maintain
heavy
haw
roll
economic
##50
complex
##elled
pict
secretary
dre
##ients
lik
bell
certain
sym
hus
il
##ests
except
relationship
##enue
60
und
genus
cultural
carl
scotland
pennsylvania
hop
security
engineering
lay
initially
possible
frequ
units
better
winter
lived
regiment
susp
scottish
sometimes
##egr
altern
junior
abs
traditional
brig
2nd
structure
bob
missing
ess
termin
legal
elev
expatriate
page
disp
psych
##itch
castle
thre
chem
purp
runs
36
oppos
ray
russia
##ask
provide
row
doctor
ended
dyn
opening
##ken
asked
##ati
##ero
##arian
cust
blood
##ription
bron
location
farm
value
##ension
les
##leg
33
communic
lee
mcc
##ready
dun
decision
quick
teacher
fiction
ram
jul
##ingu
##azz
##heast
espec
00
pu
tracks
move
nine
1960
beg
##ining
sister
ast
philipp
biography
religious
islands
##aught
victory
administration
180
##oms
spain
cens
##uce
dutch
plays
##uments
##d6
approxim
##ving
##ea
lic
##iana
especially
##iger
jersey
turned
complete
already
##outh
labor
mah
names
##ulty
az
##ises
es
ens
##ims
footballer
remov
revolution
score
instr
length
##inn
recording
allowed
word
##bridge
concern
##ounter
norm
luc
##ua
##atch
bishop
##uth
seat
cities
##bi
itself
##ters
electric
1963
annual
bon
##hab
overall
fc
stock
piec
comedy
wide
applic
##asion
##mond
celebr
prize
emb
1962
function
##riage
construct
justice
##rial
assistant
##ols
rang
ko
give
##asing
##onic
champion
respect
pick
whom
matches
academic
##ador
##val
sched
##anced
##gn
##ting
highest
sav
##ession
##anda
prob
dance
represented
portug
associated
deep
surround
block
##thing
finally
movie
##wan
entertain
##ste
45
means
albert
earlier
philos
##da
##owers
motor
prime
issue
hours
##ien
##ule
feature
ships
contem
source
iii
ak
upper
##ato
border
property
lines
bib
might
actors
trust
ott
##iy
stars
practice
clubs
stay
##ories
1961
spent
appearance
##awa
##aph
focus
friends
##ques
##itors
reform
intell
bed
starting
survey
issues
beat
##oo
shoot
subst
ancient
concept
##ansas
generally
pap
lem
##gl
##pped
42
##tic
platform
##zz
bound
opt
computer
financial
179
ohio
##usion
online
feel
ash
##rison
dip
oil
immedi
syn
##isions
34
41
launched
agric
attract
bomb
temple
variet
37
nick
polish
##oper
argent
##use
##ging
##ibility
ple
bost
spl
nature
od
officers
peace
jones
draft
1944
##change
gas
deput
activities
ut
edward
##ao
always
pain
article
uses
noted
##une
path
policy
mom
double
cases
kent
administr
entered
gallery
##anian
islam
corps
##cel
houses
##orpor
ful
agricult
##omes
columbia
literature
parish
##mit
changes
era
jac
arrang
##gian
citiz
retired
mention
digital
##ias
##cy
below
ded
size
##ify
1959
##eks
subsequently
indic
stra
programs
nations
nation
orche
multiple
stan
suffer
girls
minutes
##inct
##ington
##iance
charl
operated
winners
rod
famous
abb
bang
becoming
unc
branch
1958
##hold
adop
towns
mayor
stories
required
republican
##rick
medic
bene
belong
boston
twent
prepar
approximately
tam
diffic
connect
##jo
reveal
numerous
rain
##inois
ny
38
1948
1956
specific
georgia
cin
##ros
lack
enough
sequ
workers
theory
mess
meeting
##bers
expand
##bury
mechan
pacific
inside
sac
square
illinois
mand
1942
racing
harv
contains
##speople
##utions
majority
commander
told
##rect
1957
##ties
1950
serving
beach
##osh
cann
1980s
detail
done
##ela
boys
bring
categ
ah
flight
##burgh
status
progress
1939
michigan
trail
leaving
chairman
hab
ce
collabor
39
morn
infant
caused
passed
episodes
##bon
##ira
ari
mostly
##ales
takes
##shire
1955
cub
80
##iga
secondary
memorial
##bed
golden
##war
react
words
##ented
dog
code
##ali
comment
sportspeople
crew
1940
##mann
##ram
rat
##dy
##iders
##inet
mol
census
##ux
##onse
something
remains
creek
forced
##20
##ips
conver
musicians
##iant
britain
wanted
fal
jr
##ls
print
sr
mob
##isk
evidence
hotel
winner
metal
spirit
dani
appearances
dail
brothers
longer
1941
discuss
williams
##itation
apart
70
battal
1946
element
leave
##fect
anton
sud
1990s
##rey
##adel
fellow
vice
urban
paper
rate
##itting
fifth
asia
organizations
ba
brief
##aka
constitu
concert
increased
francisco
sail
weeks
eyes
iron
rh
1943
##down
1952
studied
bern
rose
1947
cry
store
autom
raised
##ila
confl
hind
dan
##lied
##hol
ped
finals
##icks
bol
plot
ib
##etts
poor
pack
##aya
1970s
drug
pul
##va
advent
latter
##uten
marriage
dur
volume
crime
joe
avenue
##ulations
diseas
passeng
accomp
parents
queens
diss
appears
estim
lady
##don
table
terms
55
1954
sab
medalists
structures
defense
micro
andrew
response
rog
##encies
husband
novels
representatives
hong
latin
reception
##kins
##ocks
kong
oce
politics
na
vac
##achus
asian
##aded
##bour
floor
fish
##iel
##iles
presented
electron
1953
##standing
##rupt
mind
door
opera
##oral
obtain
meaning
hero
##enge
##itan
##etic
tan
mas
##isation
critical
oxford
faculty
install
3rd
##house
particularly
cart
jacks
create
architecture
orchest
90
tower
troops
##aly
industrial
1949
nic
bh
johnson
##kin
##oid
##ysis
##ils
helped
bbc
resour
label
##lad
##illa
cz
ta
note
##ova
demon
yet
themsel
themselves
integr
contemporary
letter
mut
adult
##gypt
formerly
impact
felt
swe
alexander
49
##ortun
suc
##mark
unl
entertainment
rot
remain
supported
claimed
surface
##any
1951
extended
##ucle
magn
mixed
kind
weap
variety
supre
recent
territory
hyd
##ellow
scul
massachus
acquired
neighbor
##izing
massachusetts
von
swedish
##eman
promin
##inal
maria
morning
cru
ministry
##phy
egypt
kil
referred
##ustr
##ew
impro
soldiers
campus
garden
judge
##eds
##onto
featuring
##inary
##ih
descent
newspaper
larger
##ires
compil
spr
##10
sund
##yer
experience
seg
drive
lives
solo
##ote
jean
lov
sout
tree
covered
jackson
freed
shown
global
##och
syd
failed
mathem
kenn
daily
##orter
earned
temper
ultim
things
victoria
philosop
44
las
cham
offered
composed
##wh
horse
corporation
##hew
coming
remaining
communities
piano
##abeth
plans
fast
jon
##arters
beaut
ken
clar
separate
##win
##oul
##tered
believed
greater
hun
alongside
ts
##bb
carried
##ci
ontar
sort
##aming
mike
distribution
##amm
lot
mit
eliz
cant
makes
##onia
hunt
ori
why
hands
soccer
naval
##emic
##gs
bil
ontario
proposed
carry
amount
nearly
##nam
rules
forward
founder
authority
barb
percent
threat
jeff
lif
forms
cem
arms
48
##ourne
lieuten
headqu
1936
##ases
fill
1938
##rid
direction
imper
traff
asp
adj
recip
##uch
continu
touch
178
mainly
products
##teen
semi
demand
joint
crown
##ricts
villages
preserv
cars
true
tay
partners
##ously
cause
##icted
charts
clin
famil
shop
scene
pra
sle
1960s
whole
nearby
nucle
yellow
toronto
cooper
promoted
bod
confir
emper
question
sculpt
cav
quickly
ker
marine
railroad
##uries
viet
##hl
bac
##aring
doub
map
sydney
hour
57
flag
rule
affairs
laws
suff
##ening
##hens
##mad
##mas
search
managed
sher
43
jazz
hund
kir
ring
infantry
pp
##oster
sens
vote
##ologist
##roll
coal
simp
plants
cinem
swim
##iced
distance
bott
##thur
##ora
physical
##agn
##ault
senate
bey
estate
##ledge
uns
difficult
pakistan
rab
##chester
mis
chris
sciences
1937
moving
##ns
##oe
increase
pier
recon
##stein
75
som
districts
arrived
##phia
serb
berlin
fox
duke
usa
##akers
max
##gu
trial
bibli
wars
musl
abd
##itage
parties
scholars
supreme
lieutenant
1920
lyric
therefore
philadel
hundred
township
idea
wrestling
refl
determin
influence
languages
##akh
52
counter
require
overs
##uated
twenty
transferred
deputy
capac
1918
##astic
##anth
bronze
rub
##atively
conditions
eld
47
software
renamed
philadelphia
marsh
format
unkn
problems
affili
job
hay
residents
##rovers
##ima
lev
maxim
slow
56
kur
58
steel
prec
serve
battalion
lett
##umed
rand
reserve
succeed
##ropol
gri
ethn
numbers
##bourne
crow
grade
heritage
##ucky
leon
resist
programming
mountains
##ifying
saying
initial
controvers
contest
kim
fm
##oud
watch
##ez
santa
facilities
seem
cert
ira
baron
1930
immediately
dim
##itude
comics
educational
directly
elements
miles
51
kal
responsible
whether
documentary
lew
issued
##bec
families
ww
fame
##ancy
poland
owners
description
##aped
##oses
figure
##anger
extre
candidate
emperor
steve
bit
unknown
1935
300
czech
technical
fighting
46
equip
robin
##more
likely
acting
enem
##itzer
##ji
177
graduated
scen
classical
nether
##esc
##vert
wilson
perman
transportation
resident
korea
crimin
##ava
consists
##una
recover
labour
##uff
citizens
entr
statistics
orchestra
diam
exchange
korean
necess
initi
dipl
64
comes
daniel
ll
##aud
##aging
eg
discovered
profile
address
jur
pad
##edd
##hr
jes
squadron
effects
ans
agreement
provides
titles
##inger
instrument
constructed
officially
##worth
elizabeth
titled
##oman
display
folk
##bl
##rich
incorpor
principal
##rol
##amin
individuals
feet
hell
protest
constant
primarily
favor
si
surn
purs
quality
agency
intellig
cambridge
controll
kid
hosted
##tery
rural
##resp
##ulf
share
machine
54
din
marc
1933
removed
##ographer
##etery
ow
raj
rivers
minnes
cemetery
##ables
##oration
drums
##read
custom
1919
fleet
analysis
##oned
contact
mort
behav
##wide
target
planned
##ipped
minnesota
oak
shortly
wear
needed
songwrit
ocean
turkey
##ecting
##can
##ube
increasing
##ione
equipment
illustr
publishing
lt
bag
continue
bc
##lav
revealed
##ouri
alf
treatment
##rical
1914
fine
formation
fant
eag
vocal
catal
##uv
leadership
charge
probably
ka
grew
fear
##ression
59
levels
restaur
glass
##arm
cra
types
##town
symp
join
competed
##greg
looked
rome
1934
1929
##attle
reviews
liberal
dor
scientific
ward
kel
poly
replac
projects
##ills
ron
netherlands
lock
symb
safety
tall
1932
experi
typically
older
ordered
sites
thous
##light
positive
samp
thousand
owner
mentioned
publications
withd
gang
holy
hers
weight
reach
cold
4th
1928
mexican
metropol
dial
birds
lemmon
naz
htt
##iat
##mission
provinc
swiss
protection
medicine
settlement
##osa
advanced
problem
dub
chapter
operating
models
split
leaves
sons
attend
##lers
zone
##iser
##ighter
sin
sky
destroyed
dedicated
tennis
combat
53
##weight
capacity
nothing
##aga
simon
taylor
becomes
growth
improv
sales
aer
giving
windows
designated
##ici
combined
##sa
inters
arthur
attention
##ping
cook
brigade
ga
economy
hair
cerem
firm
theater
sexual
traffic
divided
vic
1931
participated
sweden
defeat
environmental
indones
##pa
poetry
##inity
sax
opportun
prominent
federation
intended
1924
smaller
##ensis
brook
creation
##bre
listing
ye
om
##ounds
headquarters
##9e9
highly
e9e
e9e9e9
independence
critics
image
tried
##wick
inhab
amp
coaches
disapp
chamber
1927
1922
atlantic
##igen
kitt
##span
slov
##aki
##zy
retire
wit
budd
alt
follows
palace
prote
interact
yards
wheel
vent
fix
bibliography
virt
##stone
ax
calc
provincial
imperial
##apore
greg
##iring
##ributed
obl
sad
##hu
##respond
conducted
pair
trains
benef
stephen
climate
scoring
correspond
implement
ton
##ami
colorado
purpose
ukraine
bes
shel
kansas
convers
potential
spect
looking
partner
freedom
##ogue
fict
representative
cancer
content
cycl
1917
administrative
classic
yard
roles
guest
tu
ability
1926
weekly
spons
produce
nfl
brad
distingu
commonly
kept
purchased
strug
activity
storm
composer
compared
##rel
1912
##heim
singapore
tony
beyond
##kee
##water
experiment
##uled
pand
legislative
##aska
heat
##vin
elimin
assigned
eye
agreed
1900
communist
1925
##usc
1921
wins
aband
65
basis
##ilton
##sen
couple
horn
interp
##fc
kl
strugg
##real
##kh
actually
rene
heard
bos
studios
moon
resources
adapt
subs
##book
400
presence
fro
hart
challeng
geography
khan
jam
tail
sor
theme
efforts
lit
knowledge
##izes
articles
prevent
pros
tai
recently
trip
ic
says
lad
##asty
disease
##ika
##30
##etting
ky
1923
goes
athletics
younger
orth
generation
##gers
cow
captured
kings
##iform
script
boat
respectively
##unct
dv
reference
organized
tenness
18th
entry
kat
ali
davis
malays
vs
serious
chile
trees
spread
deliver
declared
##ece
subur
sixth
institutions
appar
approach
##anta
literary
##rom
gi
gil
religion
corner
letters
tennessee
condition
ariz
positions
##mont
##oir
column
##pe
hou
freder
votes
versions
##iven
##works
price
##rie
##ambig
housing
##sey
danc
nominated
rein
fu
##enna
minute
reports
gab
ranked
internet
conservative
scale
vehicles
jews
guide
moment
teaching
queensland
really
tag
archae
andre
wolf
##pton
rear
melbourne
resc
slight
##put
snow
##anna
journalist
fab
seats
armen
equal
##ordin
##onsin
sector
wisc
##essed
##chen
twice
hills
accepted
growing
pilot
excl
##ographic
mathemat
armed
iraq
managers
##uan
arizona
##regon
learning
lewis
golf
mall
##lines
inspired
wisconsin
lor
disambig
##ibly
turkish
lyrics
##ran
fat
fictional
nep
transform
##iday
talk
straight
concent
consum
dream
larg
continues
disambiguation
##oli
ell
##zo
mast
##asa
ross
philippines
lyn
extra
vehicle
agent
losing
edge
##owa
nob
promotion
alle
expans
trop
directors
begins
suffered
niger
##estab
else
kick
taught
adopted
##efe
1950s
connected
##60
painting
challenge
maryland
neighborhood
advoc
##sk
bull
harry
##eline
##ighth
exhibition
planning
distinct
oregon
publication
officials
applied
pressure
##olis
serves
##urer
eric
gained
damage
##mes
signal
legend
99
metropolitan
driver
##estic
indiana
authorities
##lies
pin
pav
alternative
org
##rig
brazilian
rapid
kit
1915
pir
defin
newly
performances
mm
powers
animals
##aver
singers
pattern
flying
##isa
try
expanded
hope
alliance
surrounding
occurred
conflict
##ti
dioc
largely
##orney
arc
chur
playoff
##vement
bond
standing
opposition
broadcasting
##watch
repe
ukrainian
returning
facility
recognized
falls
supply
##uted
adam
##onym
ign
accident
ches
##unte
brian
publisher
normal
divers
##ads
magic
actresses
##illery
1916
##ito
constitution
##vi
lith
##lyn
walk
northwest
iran
##aven
piece
##met
finish
physic
defence
aim
colonel
portray
expected
gay
##asy
##athan
aqu
##onents
pip
animal
rhy
1910
##erc
recomm
quebec
loan
weather
##11
widely
onto
kam
proceed
memory
mans
gor
estimated
ku
fresh
vess
util
croat
conclud
attorney
jump
##gb
##wise
christmas
nap
volunte
materials
##lah
##het
strike
matter
attacks
category
hyp
criminal
##wart
performing
##where
switzer
athletic
##itable
##ivity
toky
##rawn
brid
defend
tank
##uese
nuclear
5th
regions
rough
offers
fash
##inals
cape
##iled
southeast
##ho
##gi
lane
resulted
lands
portuguese
frame
demonstr
injury
gord
convention
faith
household
flood
paid
dram
han
elementary
##ois
encour
completely
granted
bah
sides
emerg
switzerland
acts
flow
advert
classes
linear
intelligence
reduced
sense
claims
roads
bowl
##igrants
d6
lies
buried
poll
musician
##jan
norway
simply
mosc
rise
visit
##omot
situation
##rad
unf
1913
gather
electoral
exam
toward
restrict
sell
honours
bann
##aria
##ctions
gram
choice
sche
summ
minim
fields
educated
##80
confirmed
identified
nin
shut
missouri
risk
amend
aw
soundtr
launch
knew
visual
##bit
##olved
disestab
compar
fully
tas
princess
66
covid
##40
cells
lect
situated
##sch
dry
basic
cris
terror
97
nam
diplom
propos
##mo
reject
##onent
compl
resulting
dism
gives
recordings
rus
tokyo
ethnic
##rence
bird
herself
etc
##osen
1908
meant
confeder
churches
ri
narr
soul
alone
vari
phase
##chers
bright
##aints
mist
##inder
existing
doing
nik
northeast
arrested
fashion
tells
150
1911
##time
##ores
ending
whit
##ante
##icient
bot
rif
aid
measure
permanent
bulgar
trying
95
holding
sid
supporting
hug
##je
##otyp
pool
flat
austria
##alo
sunday
believe
marked
hydro
##d6d6
d6d6d6
##fully
vietnam
##onian
sri
solid
##hs
narrow
interpret
races
greece
62
colonial
kentucky
artillery
61
ty
showed
##aro
gate
pod
pictures
amate
norwe
thing
dj
##oted
72
doll
multi
jane
providing
tab
63
spot
vel
lam
chemical
miller
##ovic
expansion
cos
##room
##aine
##itled
dynasty
beng
allowing
banks
occasion
##aug
starring
##has
fans
unique
historian
comic
anderson
philosophy
walter
##under
patri
##alty
incident
americans
##rane
suggested
synt
moscow
ford
175
fel
manchester
##olished
commonwe
retirement
municipalities
habit
##unk
figures
oklah
##ishes
hat
07
presidential
bear
##ferences
receive
incumb
##uther
commonwealth
norwegian
broke
holly
factory
cad
##osis
portion
cannot
billboard
##utional
dropped
##omy
sha
shr
dat
islamic
investigation
ark
merch
insur
wel
hans
ay
##zen
ultimately
##stre
mp
consult
competitions
dal
##no
worth
mine
oklahoma
core
candidates
hamilton
##umes
##ered
accompan
agricultural
exped
getting
subsequent
weapons
borough
jay
##ori
##uge
ry
appeal
founding
escape
spok
cu
ni
unable
animated
##ogen
77
##hedral
baby
chen
wound
##fort
##iful
admir
lincol
arena
67
brun
##pool
simple
spacewatch
audience
programme
enemy
billion
electronic
guns
speak
killing
scheduled
houston
##oti
shad
domestic
bou
##di
##edia
aired
##iants
lincoln
howard
##rier
gym
introduction
cool
85
patrick
##lets
representing
##12
##omer
pione
fan
joh
employed
dol
antonio
ends
##eding
nich
treas
uncle
fuel
occupied
sets
##ivals
interior
hors
dave
israeli
planet
17th
walls
oldest
##mouth
greatest
allows
sust
settled
properties
##een
maintained
parliamentary
waters
respond
##ni
motion
faced
dc
www
chosen
shared
belg
ot
alab
um
recognition
contain
hits
mes
communications
cass
passenger
picture
sale
76
pope
clean
surname
blues
sed
teen
rud
grey
kaz
obtained
internal
skin
amateur
jesus
recru
lan
bought
##hammad
camer
##agu
##ras
steam
stood
176
05
populated
mobile
gray
orders
attempts
iowa
graduate
knight
##19
alan
aged
composition
identity
hungarian
anne
conservation
##bell
69
danish
##istry
wonder
mig
connection
fought
locomot
powerful
##enez
##caa
argentina
buff
liver
commissioned
##kes
actions
##right
##ulate
priest
everything
succeeded
##iques
gon
methods
sleep
containing
painter
seventh
##eral
##agan
scar
##isted
muslim
link
ale
##aceae
##gas
##olas
##ering
partnership
fern
mississ
neur
veter
finn
setting
##iang
passing
advis
##outs
defined
##oto
lap
bath
holds
2000s
effective
##elle
73
kev
raf
allen
##erse
88
establishment
examples
speech
strateg
nag
decor
advance
##wich
##joy
colour
hang
covers
orange
##mitted
twel
bart
refused
reign
metres
##roit
rick
matthew
necessary
##isters
creating
alph
journey
theor
roof
##fall
dougl
pas
comput
satur
cathedral
sie
ambass
application
violence
##ublin
entrance
athletes
##zh
approved
dean
alabama
broken
##idi
ern
##iny
attempted
##born
74
16th
06
anthony
collected
circuit
thor
fred
fef
frequently
##tv
lists
throw
margar
##char
favour
montreal
invasion
attacked
nom
gain
diego
##ardo
##adu
harvard
hem
honour
universities
translation
consecut
anything
remember
unlike
##icut
##eland
bapt
78
pieces
##lan
##rus
##eals
twelve
por
resistance
dick
##box
defunct
dvd
constituency
soundtrack
southwest
maximum
##iber
bid
pear
68
##po
fefefe
locations
##dale
1906
quite
##ippi
guy
neighbour
detroit
buck
brain
##kel
cm
1909
bottom
backing
colomb
graph
82
grass
##berts
gordon
jord
##ses
mrs
ncaa
selection
myst
wy
##otes
save
98
##abad
height
slightly
parks
##mans
receiving
shir
##iami
legacy
instruct
achieved
gran
trou
79
##ista
##otic
relatively
junction
standards
##view
philip
87
edited
##iva
##ghan
scholar
analy
1905
wick
asc
dynam
bachel
##odox
##ayer
myth
copies
specif
focused
knock
archive
6th
plate
miami
##ager
mi
taiwan
rival
##atus
chapel
annivers
96
gib
plac
paintings
streets
evening
ahead
##overs
consecutive
headed
chronic
drink
incumbent
passes
##ologists
fellows
##atures
portugal
superv
compilation
tropical
answer
metro
homes
drivers
dall
quant
ss
converted
protected
92
buddh
franch
connecticut
##bro
juan
wings
translated
consequ
##bish
bodies
needs
jess
phill
08
salt
##ello
astron
aviation
tra
regulations
1907
write
##sky
adap
wels
rid
shall
ways
portra
rio
remix
belgium
louisiana
stopped
1904
tig
pitts
centuries
visited
roc
##erb
spin
hamp
inaug
drag
wave
##rising
##iments
infr
sty
##ressed
kon
universal
consisted
anniversary
##agues
89
04
warri
offices
hear
finds
alleged
extensive
##bar
ment
mississippi
dublin
exclus
1930s
caval
beautiful
yes
sure
ms
lawyer
clark
##prise
03
##iller
inhabit
abandoned
agriculture
medie
##fa
##umber
alleg
salv
cinema
##agen
evolution
treaty
merc
speaking
landsc
##kshire
##inces
cher
austrian
##com
determined
sang
lanc
7th
protect
flo
##bra
controlled
trophy
productions
zh
09
witness
session
samuel
medieval
##ules
chain
##ifications
flora
##mine
93
avoid
douglas
entitled
##wal
bachelor
fisher
selling
py
##ading
calls
##uri
kevin
##con
##apes
advant
reasons
plus
audio
regarding
settle
deleg
moore
sv
1903
scenes
##eless
income
##uma
welsh
imag
rare
##elli
qualified
ltd
##stan
##15
##apers
discip
string
coordin
##essions
trump
parall
##dam
chance
dir
fighter
diocese
enjoy
perfect
disney
distinguished
ghost
pages
perh
##ares
##ropri
shape
extension
indigen
senator
hungary
gill
84
diamond
##istol
perhaps
orthodox
nel
canal
ones
exact
##uses
twin
pus
ze
1901
strength
dod
canc
heads
synd
conqu
reality
##eston
94
opposed
touchdown
gone
param
tak
derived
##rac
##eck
someone
shooting
##burn
schedule
merged
caught
cha
refuge
ceremony
licens
contrast
##oen
medium
edin
communication
##bu
crisis
bush
shah
##rum
wealth
acid
outstanding
1902
alg
lgb
images
harris
02
tick
details
hired
bure
functions
behavior
##oslav
##uing
defensive
courts
86
finland
institution
##iere
##ecution
##ront
divisions
gaz
##apped
dies
reaching
##apolis
jenn
equival
existence
failure
roberts
##aux
monaster
convent
opin
applications
laid
indigenous
drew
criticism
##erto
fit
prix
lakes
calling
##eton
laur
residence
##ality
sweet
abc
##oa
satell
pow
worldwide
specifically
fantasy
vision
emergency
mouth
##wers
possibly
##set
desert
billy
##opher
ministers
##ikh
afghan
##dd
01
##veland
transition
denmark
causing
monument
rib
surg
83
maur
subd
correct
ryan
marie
none
truth
singh
##ructure
roger
task
bands
atlanta
recipients
excell
lgbt
finishing
purposes
influenced
patients
innov
yor
adapted
fried
amaz
contained
venues
vert
refers
symph
contributed
##western
saints
cla
##ladesh
71
##bir
bangladesh
negoti
runner
duty
provision
edinburgh
poems
frederick
formula
##uls
femin
##eller
circle
dak
cleveland
shaped
flower
##bing
clay
nurs
seconds
tend
negative
upd
assault
##icts
margaret
injured
##ographical
##umin
sought
malaysia
routes
pant
funding
decre
request
crossing
##come
wol
##cop
resigned
tamil
temperature
##eased
##hors
##stream
170
expedition
budget
nev
heavily
walker
gam
profession
indonesia
soph
gymn
gent
colspan
qualifying
hip
anna
cabinet
enfor
venez
newspapers
flu
anch
##ching
##fri
hud
singing
johnny
crowd
window
mak
sword
horror
decades
ric
##agh
bruce
eat
lithu
starts
sudden
rav
formal
collections
manufacturing
magazines
organisation
briefly
mining
rhyth
emphas
mile
##fam
views
stores
ski
lawrence
renov
emot
seed
##ayan
##heas
cloth
puerto
hollywood
lux
inher
##rif
persons
restaurant
limit
exerc
symbol
recre
dragon
##rell
dang
retail
substit
mack
##din
##icide
cryst
bun
scientists
finance
proced
carbon
dont
##fe
##imb
vik
alfred
teachers
statement
rebu
ancest
seattle
baltim
lank
expressed
extrem
swimming
broadway
employees
johann
joining
successfully
songwriter
trained
alexand
installed
baltimore
##rete
offensive
##erts
sult
##iop
lig
pittsburgh
drawn
developing
additionally
incorporated
##oust
ottoman
peters
##pur
arn
##redited
residential
##utt
rooms
81
##isf
praised
molec
colleges
vinc
relief
assass
consisting
##ache
prefect
hunter
##while
happened
prisoners
dates
##anny
http
pig
occas
coff
mps
grounds
invited
economics
##borough
seems
##aling
hid
deploy
classification
jacob
dress
##ensity
photograph
observed
10th
##ailand
associate
driving
##chi
##emen
reloc
13th
##otte
scr
##iling
importance
opportunity
##ials
ja
inhabitants
discovery
wet
kan
loy
downtown
goods
vin
funds
##ui
fifa
gene
1890
##uz
adventure
thailand
##acent
palest
benn
##olo
yug
12th
gets
documents
involving
engines
disappear
##life
lac
turns
cc
1898
ride
##aked
1899
causes
dallas
ted
tang
gardens
producing
##ontin
ideas
jordan
lod
elder
pret
174
objects
##car
shell
soldier
160
##issance
##ete
compete
##ucks
russell
lun
underground
branc
thin
##opter
papers
##zer
##antly
mental
cycle
guards
entirely
gender
socialist
haz
stating
thro
##yers
##ologies
coaching
registered
shore
reaction
cous
hawai
barn
##boards
##sex
christopher
belgian
sarah
1896
jimmy
illeg
saturday
##asts
producers
happy
##angel
rum
ready
engaged
nickn
##pass
enl
cul
ranking
leban
##adi
ruled
carp
moth
8th
everyone
discography
fired
##mers
collect
stewart
barr
##lon
investment
serge
morgan
honorary
accused
credit
nas
easily
##icial
landing
stream
##othes
purchase
##gal
infrast
typical
index
sections
expos
nord
penins
amendment
closely
##ando
thick
submar
argued
kelly
voted
archbish
occurs
journalists
sisters
15th
filled
techniques
belief
14th
romantic
starred
romanian
pse
##mus
1895
donald
##enh
expression
tack
businesses
##efa
pandemic
membership
##gow
##liest
chess
skills
##heastern
colony
austin
##usal
##cia
comed
engineers
notably
adjacent
operate
##mi
clan
##uki
assistance
charges
frag
battles
##mingham
600
grav
shield
concluded
pc
##uts
mond
coastal
physics
kos
delay
##pson
tong
##lusion
glas
depend
cot
spiritual
regarded
passengers
repeated
91
romania
monarch
ridge
manga
dy
brooklyn
pel
nba
factor
improved
##cha
##family
revol
coc
commissioner
liqu
##ifer
karl
venezuel
actual
genera
wrong
promote
1897
photography
tunnel
displ
tact
affected
uefa
juris
gur
phen
inner
campbell
##ders
decade
birmingham
ml
##intend
##father
authors
conte
pic
cs
stret
terminal
ug
explos
##lev
cash
rescue
##eness
wine
sequence
collaboration
##do
values
easy
chand
cord
sig
hend
chor
pseud
assess
opposite
proved
mathematics
winds
violin
thompson
composers
contributions
credits
finnish
##eed
pierre
orle
leads
masters
9th
##ensions
##rees
invent
dismiss
joy
jason
169
og
##anne
prefer
##atherine
rig
franchise
returns
instruments
rating
##udi
describes
distributed
pull
##kar
infrastructure
nash
##iti
flowers
profit
items
utah
##oz
equivalent
gary
1885
combination
##eta
humans
slovak
denn
##rest
michel
ago
designs
thirty
reconst
reun
crash
##ski
improve
##orph
lud
capture
##orf
understand
poets
##wall
##leton
##rated
##iki
silent
sugar
orleans
bringing
males
questions
cavalry
consc
safe
sultan
##pm
##ommod
datab
arkansas
imprison
designer
courses
bridges
victims
otherwise
argentine
##hers
circum
##chell
vas
##isb
##ycl
##alia
##organ
manh
tied
gross
##ashi
serbian
charged
legislature
norman
##pan
depos
committed
##ven
carlos
attached
enroll
##iko
judges
veget
alco
##nia
truck
cler
transit
kum
bund
sharp
marshall
revolutionary
releg
guine
cyc
parallel
accommod
credited
diet
##18
showing
bears
hampshire
rhythm
chose
abbey
artistic
##gie
harm
wedd
##attan
bin
instrumental
stands
tribe
superior
substant
1894
##etime
painted
universe
ian
andy
##hal
yugoslav
stages
##gate
learned
vienna
##ashed
meanwhile
daughters
##going
nelson
wes
charlie
recall
robinson
advantage
scheme
1892
alp
##rent
territories
liverpool
user
wounded
bail
fishing
lp
120
morris
##aza
understanding
##low
##oni
device
defeating
167
##ussion
ownership
800
##iner
mail
##heless
bog
guitarist
resort
172
168
finding
giant
protein
temporary
##aham
carrying
##hetic
##yard
wright
premiered
survived
brick
eighth
resemb
iranian
prepared
interests
jar
rice
##apping
stanley
164
diagn
##ogy
cyp
ambassador
damaged
11th
##lying
reduce
stro
users
earliest
storage
kiss
##uits
resign
weak
tries
carib
muhammad
arranged
##itals
rit
173
cards
liga
##oba
induct
seemed
##entially
shan
##rs
##iac
repair
historians
1889
1893
##die
poem
ceo
drop
torn
leaf
didnt
feed
strate
250
franklin
##ucing
##enz
tourist
divor
didn
appropri
painters
##illy
anime
##orro
peru
autonom
##hum
murray
sah
##nie
therap
executed
pink
fruit
replace
raw
hed
museums
taxa
creative
strategy
isol
grace
nazi
##anz
tie
soil
mechanism
##tle
barry
##16
context
##arus
lingu
mamm
##ido
##oring
separated
adams
counties
suit
duties
##rik
prohib
1891
furn
synthes
riding
mode
summary
richmond
constitutional
mason
controversy
gulf
cod
lion
phoen
bernard
cbs
baker
pale
butter
shock
message
linked
insc
hindu
marvel
##arn
pron
catch
mars
erect
##ipping
##ruption
neck
##ascar
commem
rejected
portrayed
##eno
assumed
honors
delivered
clock
vanc
switch
##issions
camera
satellite
bureau
turning
rangers
insurance
buffalo
##action
hurric
editions
kun
1920s
participate
##aman
##iri
##ouver
carter
unus
##17
##uster
meets
##13
legislation
caf
##key
kennedy
wooden
evans
rena
photo
foss
flash
helic
descend
##ears
mong
##riev
serbia
telep
hosts
portland
upgr
evil
##estyle
1888
margin
arrival
##net
va
##cing
bio
chanc
boss
choir
serial
knights
beauty
cited
##lov
females
yorkshire
regularly
manusc
childhood
##tra
##oh
sib
josh
factors
kw
biggest
##inian
vancouver
coverage
thunder
fib
tigers
buy
friendly
##iah
pure
peninsula
tort
supposed
adaptation
##bul
rising
nan
ivan
meters
toy
milan
testing
plane
##uda
bak
acoust
occupation
##fast
pd
solar
##night
eu
restored
noble
manuscript
replacement
phone
measures
nova
send
aar
networks
anyone
##mal
coalition
##laim
##pers
file
admitted
responsibility
accompanied
disord
atm
##lington
wire
martial
##14
costs
archbishop
jerry
expert
scand
##tha
eleven
retained
filmography
zero
venue
pulled
entering
##oria
triple
##utation
volley
kath
hav
progressive
experienced
madrid
difference
##rome
activist
benj
ng
yu
mainten
springs
rifle
videos
stayed
degrees
##etta
export
charter
severe
gw
width
option
wag
ble
strip
##illo
legs
alberta
arrest
criticized
pleas
uss
##ilit
enh
percussion
1886
eug
laboratory
manner
repr
cave
operates
tip
blind
monastery
medals
arabic
tib
kilomet
cable
scholarship
businessman
extremely
maine
maintenance
hub
##bach
summit
warner
afterwards
graham
practices
fixed
belonging
##asi
##rons
##uccess
allied
spoke
symphony
marketing
dakota
struck
inch
concerns
unsuccess
neut
##urg
restoration
explained
##orial
dh
##urt
handed
horiz
tech
debuted
preced
glasgow
changing
opinion
##nat
doubles
##acle
##orship
osc
yout
##igation
tob
appearing
meg
##aware
ages
covering
interested
##hard
##rises
spell
demolished
forg
guil
lob
1887
griff
check
horses
congreg
nbc
##ecess
pup
waiting
egyptian
filed
166
speaker
temp
playoffs
mud
bible
carn
concrete
thanks
landscape
1880
weapon
##olia
license
origins
boundary
parent
##ais
##ovo
learn
gabri
mitchell
suicide
heb
sul
portrait
apple
armenian
##pping
##bean
encounter
##ranean
revival
tourism
accur
habitat
breaking
chemistry
##roc
tier
ther
sounds
vary
formally
##yt
channels
eagle
##ilst
plain
socorro
represents
wait
continuing
eval
1884
##eda
select
##oking
ech
wayne
##aments
till
##lishments
165
walking
##oked
luis
adding
##dr
resolution
thousands
classified
movies
manhattan
bom
##fo
replacing
filmed
determine
retre
popularity
volumes
##boy
movements
isa
giants
hes
##anes
lions
capable
animation
lawyers
panel
airlines
vacc
pharm
feeling
jobs
luther
successor
roughly
fold
##ielder
crus
canton
kay
admiral
##rot
segment
warm
acquis
marit
surgery
##mel
shopping
goth
prad
experimental
rar
##rec
illustrated
pian
benjamin
##oker
coun
cricketers
wed
1865
cinc
mediter
operational
branches
whilst
serie
lav
##master
alaska
alive
empt
passage
##yon
barbara
foster
##ture
sao
##ographics
prefecture
encycl
kin
boats
seeing
battery
sight
bic
kg
significantly
penalty
ask
##osaur
##zi
borders
brisb
nerv
azerb
centers
##oka
##opes
glen
equipped
ns
charlotte
azerbai
shadow
merchant
brisbane
dating
pitch
##mate
bishops
##face
visitors
worship
##eto
##ente
marath
technique
shift
differences
retriev
demographics
kap
##fare
huge
frances
architectural
crimes
facing
##ario
disestablished
rebell
aspects
jama
sak
ports
earn
sic
missions
forming
##idel
frequency
genre
fasc
guer
driven
aber
##oda
offering
database
math
quiet
forb
railways
vul
##icit
sentenced
teach
pont
##ingham
ris
personality
##wing
aggreg
consp
##olid
130
indians
platforms
wedding
persp
policies
helping
##inae
keyboards
jurisd
ensure
1861
riders
mines
cel
devices
alger
tub
boxing
markets
162
organis
bind
representation
dw
jonathan
worksh
suggests
subjects
industries
electrical
relative
hut
photographer
1940s
indoor
peop
volleyball
themes
closer
depict
dual
employment
depending
requirements
accounts
##ding
transc
pm
##rimin
rolling
##rose
##atically
neither
philippine
drawing
##rant
##iors
1881
sporting
trig
charity
withdraw
modified
solution
##ipe
1862
endemic
mounted
intersection
stu
##acht
1870
absor
wake
occasionally
hunting
fitz
longest
surrender
##alf
encyclop
settlements
cultiv
ethiop
virtual
slowly
acoustic
chi
monitor
woods
nevada
atmosp
yam
scout
tests
delhi
weekend
signing
surrounded
corporate
1882
hull
debate
bobby
159
midd
convicted
hyper
##lie
chest
adela
grandfather
casual
surviv
secure
recept
waste
motors
##enne
cousin
quart
phr
caribbean
specim
strategic
163
bent
gear
agents
1864
dna
seal
mul
injuries
md
hein
nhl
coat
maid
satisf
participation
peoples
mini
##friend
ninth
alice
monte
components
kab
tale
blo
mixing
peaked
ibn
kor
parker
colombia
afghanistan
##alis
voy
cincinn
##igration
##ingly
subsidi
falling
nut
##uous
nomination
terry
##donald
steps
mills
##away
basin
##mill
mechanical
gau
##othy
dangerous
rounds
signs
mediterranean
##what
##ocol
thinking
visiting
scientist
##vere
archives
agencies
warren
picked
##enberg
trading
victorian
initiative
archaeological
intellect
##oca
sung
indicate
wang
##ulu
##aks
raise
youtube
##usalem
pole
moroc
##encing
inqu
talent
##aha
cincinnati
157
forests
phoenix
##obi
definition
anat
appointment
##idad
bristol
grave
##iya
assign
vessels
reporter
suspended
liz
activists
renew
##anche
##aa
dated
remark
larry
mull
grown
commemor
somewhat
moder
hearing
characteristics
cock
nit
marry
duo
jerusalem
hob
1878
processes
pill
conce
rhod
##ivan
##sea
eliminated
outer
1863
##bound
##mund
belt
spoken
palm
guinea
pent
botan
##iously
wildlife
anglic
voiced
##rate
festivals
keith
nur
prompt
completion
diction
punk
depth
texts
##rah
runners
extreme
resid
losses
earthqu
kirk
anthrop
releases
output
missed
lex
fled
voting
celebrated
advertising
decline
##ctic
##eria
harrison
##ogs
##hill
##coming
forum
##mat
integrated
kids
heaven
adelaide
##rin
filip
semif
powered
proposal
skill
fi
##oko
##rehens
nicholas
competing
exception
roots
au
##haw
stab
1000
##eler
curt
costa
constituencies
drugs
vincent
maz
tribes
preserved
##feld
##enson
aj
prol
1876
lip
sustain
ft
yank
seek
requires
strange
cuba
##arts
involvement
##uka
keeping
pradesh
reinfor
##ception
domain
vlad
apartment
##owed
recur
villa
adults
collins
seb
lis
len
lag
##ws
pi
##otype
##irus
neil
massive
achievement
##ulus
fol
siege
chel
##owski
benefit
tribut
##gart
declined
##amer
tools
spider
##ication
clinical
continental
##osph
1879
leagues
households
jung
##kov
paraly
affiliated
commerce
1883
##ener
baptist
telec
nigeria
bug
gust
ecc
wants
mystery
ig
oblast
innings
reprod
##gio
##omen
##state
##load
##abled
hole
##urers
wis
pine
influential
nebr
denied
ral
patt
lanka
laugh
buc
##vis
statue
experiences
patron
sessions
treaties
coron
massac
craig
graduating
marks
##nal
existed
masc
##amo
prep
##abilities
uncredited
##mates
nc
##fish
das
rates
printed
##rix
cum
departure
rodrig
sut
1867
ferry
licensed
apparently
timber
uniform
croatian
nu
reputation
nebraska
cyl
##jar
cort
steven
eagles
transmission
##atar
125
##aco
##usted
mend
##fia
henri
##sters
threatened
depression
destruction
minimum
rico
desire
##cement
entre
locomotives
tales
democracy
persian
achieve
terminus
surviving
radical
bald
copy
quad
processing
clothing
bold
vern
competitive
breath
wish
pere
theod
adopt
sculpture
smo
flows
guardian
stal
approval
ensemb
tempor
##estone
slave
wool
##nan
friday
thorn
##chang
tight
##antine
patrol
1875
nad
pregn
maritime
surge
walked
illegal
vegas
doors
coffee
pointed
nominations
##folk
156
cancelled
##ogle
youngest
lights
##iration
spaces
intention
gamb
maps
##enses
intermedi
##eper
guar
instance
##rett
belonged
bert
dup
##icus
##vo
monthly
##van
participants
lose
##ige
nun
similarly
wearing
prel
premiere
trinity
liquid
##know
rever
1877
sponsored
apost
hidden
##23
##imate
shares
crystal
blocks
##tm
evangel
##amental
##ophone
unp
overview
tet
valid
155
##asha
whereas
gy
false
filming
protests
1874
roster
holiday
elevation
random
essential
indicated
loop
##oga
buddhist
sacred
https
nest
civilian
farmers
laz
##tz
visible
tenure
##jab
architects
reservoir
1860
cardinal
hundreds
tum
turner
wu
##iciency
oliver
arrangement
croatia
##ounced
guilty
comfort
chase
touring
screenwrit
amongst
corp
madison
competitors
rush
vessel
jury
##esis
neighbourhood
anchor
##teenth
hebrew
acknow
harbor
rou
matters
##nell
sitting
##igible
dil
viewers
1871
outd
1872
tribute
tommy
styles
##omon
hudson
rhe
bullet
##bow
holland
##yc
##rupted
##mm
1868
##otted
nod
##agar
camb
merit
manif
malay
##rog
heir
hawaii
700
##emp
##enburg
rocks
##uli
detailed
##kan
sentence
bengal
bone
xi
abuse
orn
lon
##fts
grab
studying
rah
adventures
wo
suddenly
undert
chick
mick
butler
rated
insects
photographs
sees
lloy
##equ
##igo
##nik
##rat
principles
hir
increasingly
hann
annually
struggle
researchers
swit
##eva
##aca
contribution
angels
exit
##ivia
motorcy
psychology
muslims
triang
##uckland
gol
dennis
intent
gig
chal
##abet
jet
##engt
trials
maced
beer
syl
warriors
##25
peer
auckland
abst
birthday
ghana
heroes
hugh
lind
##stad
overseas
kol
spar
##oshi
absol
revenue
flav
yang
##ifted
biological
##brid
helen
cosm
##eli
gap
complic
provinces
sz
wides
##inction
organisations
pon
leo
##eon
ruth
sask
stress
denver
excav
kle
##ulating
##xual
##endar
kitchen
meetings
concerned
hale
hurricane
chancell
strongly
##opp
seeking
lasted
##izer
biology
##incorpor
##istani
yale
hence
operator
notice
considerable
##ilia
##keeper
alcohol
treated
google
significance
pyr
1873
reportedly
##inter
##ridge
ced
nepal
sull
minority
158
##backs
celt
sole
suffering
prest
bulgaria
consolid
mik
##incorporated
highlight
donated
wells
smart
##certain
relationships
1866
nomine
athens
craft
##igrated
manuel
##cs
pioneer
emigrants
subdiv
ruling
incidents
voices
predecess
supporters
barcel
##eb
bonus
cargo
effectively
delta
craw
recommended
qualification
##achi
sick
perp
cliff
##ema
trouble
councill
dum
meat
historically
circumst
drummer
saudi
prosp
guild
##avan
##break
##tors
##ulum
parad
lloyd
##lings
remainder
capit
unusual
guit
interchange
##unction
ranks
controversial
devil
leeds
manor
bour
aur
emerged
zur
asks
density
harbour
counsel
alter
liberty
##aser
belarus
herald
edwards
cp
moves
attributed
strict
rook
dock
rogers
patient
ki
societ
##fers
berg
photos
font
intellectual
alternate
atom
stol
attractions
submarine
##encer
talking
cork
unincorporated
deck
##amps
##aba
##fs
acted
optim
allies
gosp
##station
audi
gonz
vast
genetic
expect
regime
sap
vit
tours
supplies
##imir
derby
immediate
##ribute
eddie
ottawa
gilbert
legion
##roph
##gradu
myster
absence
normally
110
honey
##alam
##opol
##people
lift
##holm
danny
reed
norfolk
chan
tone
gradually
##wig
erected
vib
##thy
##gets
populations
confederate
vertical
##castle
monster
liberation
proport
dogs
restaurants
illness
citizen
tol
closing
montana
stable
##assy
rebuilt
lamb
##lock
publishers
tournaments
grap
relation
seeds
##keley
fabric
guitars
garcia
saskat
##ampton
commons
##dp
relocated
senators
canon
indicates
simpl
susan
discontin
byz
colors
volunteer
tyr
harold
tul
teleph
bacter
discrimin
shaw
diseases
punjab
encl
stick
##du
munich
thai
##asia
occasions
aux
looks
claiming
##dish
grammar
catherine
herbert
affair
posted
cooperation
##ju
boundaries
abroad
##after
##ennial
##anim
managing
recovered
scope
murdered
##yne
sanct
tamp
pedro
##chy
tiger
##ahl
bulgarian
jail
inaugural
sox
##raham
christianity
mys
concerts
##uration
elite
confront
##enos
ralph
suburb
paralymp
comprehens
propag
noise
dawn
barcelona
standings
commanded
cn
toll
alien
beet
harmon
glac
throne
filmm
stem
##opsis
sier
sket
##oured
##70
dad
##illing
##math
##ogan
funeral
stones
ferr
##soft
##achment
pitcher
berkeley
aftern
cotton
##fielder
##sterdam
##olition
deut
##onymous
ritual
##pread
auto
sean
balance
copper
rams
caps
missile
##avery
rebellion
##place
##fr
##inus
##itarian
##ijing
grades
memoir
governments
funded
heavyweight
punish
widespread
begun
concentration
disband
dust
bry
useful
##amese
fed
tract
##iao
##iliar
ratio
possession
dancing
##vers
##oro
kas
hond
anglican
140
amsterdam
##iot
stuart
perry
attracted
choose
impress
##udes
abu
gates
##iece
tea
venezuela
cardinals
##stit
simult
render
##eh
##anga
tap
procl
##enda
duc
ballet
simultane
mold
ceased
stere
extract
##mith
crossed
dictionary
acclaim
conversion
enforcement
periods
shoulder
lifetime
fighters
virus
explor
artific
hood
##agement
1869
aimed
mead
traveled
attending
oz
rabbi
soap
describe
milk
154
anglo
fate
murphy
ninet
luke
##gins
##terior
predomin
##ded
episcop
violent
##via
limits
convinc
bosnia
ras
volunteers
essay
vermont
traditions
##orous
pall
##imp
gentle
push
##iji
literacy
##body
ide
automatic
worst
bm
categories
greatly
nee
##gom
##helm
technologies
pock
christians
obv
##erted
breast
xx
beijing
frequent
cec
pub
##riptions
electricity
conj
substitute
##thus
encouraged
gem
benefits
rally
pond
##agre
ernest
playw
##issa
physician
tru
godd
rapidly
exists
commentary
cricketer
connections
##anni
cartoon
##oi
lc
##24
writes
ip
orient
component
pirates
qualify
pakistani
guests
radar
vil
regist
customers
##ffield
sequel
fifteen
tool
##ribed
identify
reporting
lebanon
hey
presidents
partially
aftermath
camps
enjoyed
##ectors
empty
##aste
##echn
##iformes
unions
nr
detective
orb
clearly
##enders
##ichi
##38
delaware
stef
jurisdiction
indeed
immigration
narrative
possess
clinton
##enia
pruss
##opl
##esty
hide
speedway
merger
percentage
advice
buses
nevert
##aun
recommend
##acon
assets
presid
nevertheless
cott
evac
sample
gren
jefferson
mcg
friendship
kidn
ana
revised
rocky
rocket
assisted
responded
academics
##unc
petersburg
victim
harvey
carr
germans
chorus
connecting
cruc
opportunities
escort
congressional
ongoing
tomb
traditionally
smooth
##aukee
##uin
killer
##ancing
fellowship
organised
variant
gauge
certific
wander
##point
wallace
##agi
inducted
ultimate
acquisition
businesspeople
columbus
##graduate
fung
vamp
mant
manufacturers
##erg
rut
1859
publicly
verse
cros
collective
jin
excess
compens
dominated
##auer
militia
besides
disestablishments
##aters
hospitals
behalf
outdoor
##rift
daw
pushed
partial
florence
aaron
cattle
##emed
banned
##iture
tir
brands
raymond
withdrew
##eing
##uy
ya
explo
##eenth
manual
locally
##case
##eo
favorite
uncertain
spa
leonard
opponent
sebast
intermediate
bened
trio
thriller
commented
supports
##prene
ticket
icel
cox
renaissance
recovery
##esters
tanks
##inson
survive
##phal
enterprise
valu
##issue
consumer
bras
arsen
imposs
cole
ensemble
entreprene
root
passion
thereafter
worker
plastic
1850
##apse
saved
rowspan
blog
pearl
approached
##stown
execution
##eyer
watched
retro
listen
##rim
##lu
carrier
epic
democrats
hack
files
dame
forty
##aho
indonesian
sympt
1800
participating
jor
exercise
strat
arnold
##cat
exactly
##aran
remove
administer
telling
##waukee
##using
diameter
ud
##uez
traded
##borne
shin
##itis
extent
subsidiary
kre
protestant
scores
doesn
spending
101
sierra
##ivery
secured
fis
dramatic
immigrants
arrow
relev
iceland
nak
ladies
ober
cloud
substantial
trick
deport
toured
defenders
venice
stanford
ing
lowest
welf
ost
##35
##olds
105
tut
arist
krist
sheriff
romance
newcastle
sheffield
milwaukee
viewed
patterns
grove
deployed
reveals
novelists
democrat
delivery
mate
crosses
bench
trin
contested
alloc
replied
##icate
reduction
fee
gift
alpha
rider
partly
poison
autumn
manufacturer
manip
burg
conductor
ranch
regulation
##fly
playstation
machines
archived
gm
writings
estonian
drafted
sop
swan
elli
##etti
aster
beating
assum
sony
northwestern
##urb
indianapolis
1848
nac
gast
##iaz
wellington
circumstances
##minster
innoc
characterized
discussion
##90
todd
##berry
2010s
prosecut
certified
blow
isab
##alg
heights
chester
possibility
practical
layer
cf
##inations
reaches
##ouses
bases
disaster
moh
abraham
##ader
journalism
establishing
exposed
scrap
motiv
shakes
unanim
burning
instruction
witch
parking
nigerian
prayer
remote
generated
neutral
fifty
aggress
##istical
earning
roche
agree
##anthrop
pride
decides
cb
dix
judg
landed
mosque
exclud
rey
vocalist
yield
viv
##gary
nashville
##21
dismissed
##isms
sullivan
underst
1857
boulev
continuous
ceremon
preparation
venture
##nip
azerbaijan
gregory
warning
##ommun
subt
##iveness
kenya
tenth
exclusive
ji
acknowled
closure
declar
athlete
geomet
lok
territorial
3d
elsewhere
embassy
valent
interviews
ideal
concerning
bever
appropriate
##page
resource
gabriel
compound
tin
decisions
distribut
fortress
##aws
usage
dreams
afternoon
jacques
syria
mathematic
chiefs
hindi
dispute
arrangements
##wald
phillips
algor
rol
implementation
tox
welfare
baronet
ecu
hod
cauc
discussed
microsoft
recipient
##zes
##athy
faces
defending
slaves
##elia
consort
presents
stim
journals
patent
raising
##pher
ace
mann
opponents
##oning
##umi
cuban
concur
towers
perce
mirror
hier
chancellor
gospel
principle
unless
##andez
lisa
peng
hughes
calendar
designation
moral
comparison
##rection
pretty
##su
artificial
##itter
##haus
kate
piet
diplomatic
tibet
pete
robot
algorith
telegr
voters
oakland
organic
##ails
rhodes
##vent
tram
bills
perm
nem
stein
facilit
cou
manage
novelist
##bin
completing
##eni
mam
furthermore
manufactured
encyclopedia
calgary
##olph
excellent
##eries
terr
diesel
gods
##22
theology
bars
relating
interpretation
##lus
rookie
wik
permission
regul
dent
##bie
exceed
marqu
boulevard
debt
printing
giov
laure
surprise
annex
danger
##urst
1854
##atra
loud
refere
sod
config
apply
bankrupt
exhibitions
urug
aus
sara
relay
departments
clarke
companion
##acked
preservation
revenge
snake
maybe
##enter
implemented
prelimin
comprehensive
formations
##ppe
speakers
reds
watching
obst
kazakh
kash
phd
nice
slovakia
eb
jag
cogn
crypt
swing
somers
teeth
pump
unsuccessful
conclusion
ahmed
urugu
assessment
autonomous
conspir
slav
globe
advisory
laura
##riers
oval
watson
##cano
earthquake
##esco
methodist
philosoph
impossible
gameplay
molecular
editors
filipino
warfare
settlers
##yler
usual
moz
compiled
##ansk
paulo
durham
eggs
autobi
sprint
oscar
##sy
flex
doctr
strengt
##ortion
judicial
##cos
curric
episcopal
##keep
chlor
angle
stern
##isch
celebration
lithuanian
ces
montgom
##ourse
joan
abstract
##isha
requested
graphics
exclusively
topics
montgomery
forth
sudan
##uro
##rington
miguel
farming
vow
procedure
bruns
monday
cycling
parade
wer
displayed
afl
##ensively
##urally
ff
##chewan
##icing
strand
jen
burials
##mun
supplement
##oons
farmer
kerala
diverse
corruption
saskatchewan
outl
sevent
mood
accessible
cruz
##oku
persu
espn
ein
ties
valuable
raid
krish
ard
dos
generals
worn
rag
pt
palmer
clergy
sovere
compositions
hammer
##iev
describing
1858
sovereign
friedrich
err
##asters
perspective
fitted
deputies
abdul
conscious
inspiration
tape
pilots
ek
##eare
proof
##zb
civic
chilean
founders
##oard
##omi
##agonist
challenges
achiev
rarely
societies
##ifts
recurring
vid
reorgan
doctors
input
##omo
haven
negotiations
nephew
bub
##abe
fallen
condem
ingr
manit
helicopter
widow
sailing
graphic
feather
updated
melod
pray
loyal
##care
##inum
sergeant
argument
bach
brew
pairs
chad
eldest
bav
cutting
##star
suitable
##icon
promoting
jerem
##ugu
tons
burned
jak
ratings
campaigns
boot
feud
framework
dors
acres
enters
finger
affiliate
bj
influences
gothic
shakesp
rect
ranging
advocate
suz
geoff
avo
chamb
##atter
originated
##iour
morph
latest
initiated
##iba
chrom
napole
gul
##grade
involves
grandson
acceler
dominant
chec
monten
essays
gael
gt
##rooms
tasman
mim
##acion
##adier
sharing
knows
##dal
lodge
therapy
backed
##caster
shops
intercept
philanthrop
##iph
wilhelm
ou
odd
attempting
spend
beck
familiar
corrid
##ifies
##ifier
##ahan
##izz
respective
debuts
automob
##eted
hybrid
##uations
##verty
readers
corresponding
rust
quarterback
apparent
brunswick
ordinary
airline
##27
##pert
##liga
enemies
sd
racial
flights
telephone
rip
beth
governors
##osing
##gov
coinc
priests
perth
wealthy
##iago
marin
improvement
##aku
tunis
##arians
internationally
threw
luck
explan
switched
premiers
reconstruction
egg
##hyl
##exp
elevated
julian
mario
commune
pursue
purple
##eme
##oslov
steep
##mother
alpine
chuck
preferred
##bel
yugoslavia
attendance
interstate
mathematical
load
spark
neo
gra
basil
patric
aside
jav
##most
midfield
scotia
##agers
106
produces
realized
ecuador
trigger
informed
unre
monuments
princeton
structural
warsaw
oxy
extinct
##osc
##arta
kra
brooks
##lem
##ourg
mainstream
cun
arriving
ruler
gn
lucas
identical
southeastern
grande
shakespeare
locomotive
phon
options
##cht
assists
bennett
congo
freestyle
eugene
##aughter
preliminary
marx
disappoint
associations
polar
##var
inspector
nursing
believes
achievements
mt
restricted
##26
wider
oral
##unda
commod
cabin
vig
resignation
##cester
104
##origin
aware
lil
plaza
leop
nancy
##28
petition
subsc
abolished
anthology
phosph
fundamental
radi
infer
maurice
delayed
poverty
##ettes
libert
seminary
mg
##rill
1855
submitted
suburbs
128
##uces
1856
moths
bend
massacre
thank
mtv
135
endors
eligible
##34
##eca
pla
fault
libraries
sag
2024
newton
centres
expensive
skull
isaac
fastest
byzantine
helps
raz
reformed
highland
subsp
collaps
proc
apoll
##bus
lenn
wre
temples
focuses
presby
##bank
symptoms
antiqu
editorial
nickname
ist
surnames
nig
spy
drove
##estershire
amy
artwork
conflicts
drinking
celtic
shangh
thorough
canyon
lithuania
gott
taxonom
recreation
franz
1852
exposure
citations
unn
prisoner
variation
nights
veterans
sufficient
reli
decide
galax
bast
veteran
forever
##uto
housed
francois
presidency
enthus
rovers
stall
travels
moments
##uta
essex
dialect
franco
schm
emir
czechoslov
##ieth
ster
forwards
error
dag
##sis
bout
travelled
rent
stroke
lope
stepped
dominican
beam
wilder
collegi
reserves
retrieved
##gus
hd
##person
##36
outbreak
tat
crist
temporarily
czechoslovak
discontinued
exile
aborigin
variations
riv
##icia
##fi
##ilis
relegated
armenia
resumed
swift
ranges
shipping
burns
explain
kang
dialogue
misc
eve
enact
goddess
1840
sized
1851
removal
##iformesfamily
subc
##arr
petr
##eters
##bird
depicted
##osexual
remembered
congregation
##omed
brah
escaped
grows
harper
extend
gest
theatrical
##aire
divine
collapse
turb
comments
##pro
vladimir
freight
temperatures
amazon
justin
##ovich
notting
suspension
zo
owen
cats
##iry
##brand
talks
shanghai
clothes
wals
fulf
missionary
visits
lying
doubt
mouse
feelings
restrictions
colin
otto
##fire
bats
descendants
implic
mete
##hall
dischar
##ugg
kad
aires
defended
specialized
recognised
##othe
logo
conventional
asking
129
capitol
inhib
arabia
keyboard
happen
administrator
##opa
##elin
##ovan
##lain
thirteen
claire
cameron
dict
chapters
spencer
incomp
flew
mammals
resol
coached
vital
analog
panama
stockholm
htm
108
ion
revers
footage
##eff
simultaneously
proteins
reop
##oven
##found
awar
defender
stops
departed
psychological
bore
##bol
psychiat
interc
lub
buenos
deer
copa
##zhou
ramp
isolated
##asian
carries
garrison
willing
increases
##pat
oc
innovation
##ensen
dancer
rept
beneath
skating
samples
tampa
lords
altitude
bru
handle
kenneth
##ilding
creator
ceram
rebels
songwriters
edu
luxemb
putting
brack
bailey
quartet
lung
isle
##world
phrase
##atta
sailed
syndrome
1853
iraqi
liu
waves
##ucker
sas
##acts
awareness
##ocene
##airo
statistical
echo
vest
##imo
mansion
lopez
hass
placing
blank
deemed
spac
conversation
troub
marathon
sacr
##monton
airfield
moss
##rano
provisions
##ibilities
##mons
excellence
##avi
##isan
ti
aub
rede
900
traveling
receives
frontier
##boys
torped
nintend
slavery
##yll
heading
examination
disbanded
silence
hamlet
collegiate
devoted
hym
vietn
gathered
wore
afford
ronald
rhode
highways
presentation
relevant
##esa
mainland
hort
sheet
matrix
##roe
decorated
mv
theories
guid
referring
stolen
axis
1849
predecessor
##ords
reyn
grid
vietnamese
batman
diversity
prices
aboard
tube
murders
survival
torpedo
manila
entrepreneur
nintendo
smoke
permitted
appeals
connor
lut
unity
davies
gand
depot
columns
solutions
mcl
##uh
##rys
casualties
underw
stevens
lak
fortune
dow
nascar
assassin
ci
somerset
peas
citing
layout
penal
##quin
motorcycle
coins
euro
payment
atmosphere
firing
please
mutual
specialist
##furt
midnight
dale
gut
tok
slam
knee
installation
controls
##cott
labels
##aze
colonies
loved
manitoba
lover
dollars
mythology
edmonton
nationalist
breeding
johannes
recalled
rodriguez
##boat
disorder
doug
##sche
louise
nottingham
prove
functional
refugees
variable
prague
yours
predict
##kers
signals
eps
ellis
107
##ullah
149
succession
duck
lesser
disappeared
##ishi
grammy
reel
##riet
morocco
discrimination
ecl
twins
dependent
servant
wheat
ware
##ovsky
109
abilities
vinyl
##kt
natal
##lights
enrolled
tested
emotional
##velt
mb
redes
advisor
inherited
mumb
gymnast
airports
warrior
wrap
##ht
approaches
indicating
customs
flank
kumar
fraud
promise
aggregate
##rets
bones
##ourt
brass
allan
overl
oblig
1846
metre
demonstrated
westminster
interim
##33
confused
##illed
lighth
##lee
ahmad
midfielder
##rage
borrow
##far
##ailed
1847
##music
stir
127
##ester
lean
faster
dinner
##atorial
renown
semifinals
overt
blake
roth
##ophy
proceedings
variants
shots
hik
trent
##zig
##acles
dissolved
interactive
ai
##brook
orch
concepts
mercury
mck
difficulty
sandy
voyage
##iest
porter
martyr
##attered
smile
improvements
felix
mlb
##phis
interesting
bros
##encia
reflect
authored
reducing
nurse
posthum
##fit
retreat
whis
distinction
darkness
fing
andrews
java
difficulties
pilgr
nose
pound
oriented
afc
holl
suspic
eis
115
##ylan
anarch
logic
fare
arrives
failing
sheep
spots
immun
cathol
pocket
claud
ank
presenter
##eri
volcano
whate
brill
understood
broadcasts
skel
button
herze
julia
rehab
compounds
hak
##omorph
compr
superintend
bam
musc
yan
reviewed
##itary
santiago
eleph
behaviour
explains
banking
147
experiments
spectrum
theological
comedian
##lett
collaborated
landmark
electronics
banner
##aled
##irm
giovanni
keys
cafe
pist
exha
trustees
pec
poster
hardware
sixteen
mineral
extensively
attacking
##acc
sacrif
vall
blade
powell
jake
roose
dying
##igar
essentially
apartments
##boro
tackles
perpet
geographic
##aja
whatever
##aved
span
idaho
patriarch
rankings
##29
##onso
youre
gerald
##kl
##oux
##oque
hamburg
hap
civilians
hil
simpson
##illon
stamp
burial
preserve
1812
##ilda
fff
boards
dong
certificate
commenced
jesse
mh
tent
belgrade
##anton
hi
holmes
jamaica
presbyter
opens
workshop
colored
pace
tornado
##ycle
demands
canter
strings
##gun
lomb
screenplay
##lass
##ye
antar
orph
exhibit
hitler
fauna
declaration
registration
hypothes
salvador
rs
leather
imprisoned
hurt
julie
fool
bee
meteor
styl
nathan
herzegov
zoo
##chan
sank
stuff
124
touchdowns
package
endanger
semin
praise
catalog
targets
dud
##iast
kann
tribal
ply
arrive
deriv
aids
survivors
brut
vulner
timeline
podcast
hiro
measured
##ystem
visc
jaw
retiring
##inia
##aru
cyprus
bypass
migration
##quet
fernando
breed
chron
evolved
operators
glad
benedict
1845
sf
northeastern
stake
eating
distinctive
spur
##ensional
##okes
##ingen
chore
connects
fossil
##iliary
lamp
##xi
##atha
toler
2020s
wheels
theoret
##itic
oxygen
jas
scandal
accessed
henderson
posts
nowrap
kills
dund
kot
relie
heter
lighting
computers
shen
solomon
##irect
convinced
integration
vand
vine
bread
roosevelt
##isons
crack
##apur
sebastian
##usa
134
heath
rings
sham
##itus
compact
oriental
signature
identification
affect
##umps
shelter
reich
##borg
##olly
trim
##oleum
hawk
devon
developments
programmes
promised
##endum
103
malaysian
zen
clif
144
chip
contributing
transmit
ming
reader
lesb
literally
crops
bowling
herzegovina
##ashes
performers
governing
cream
eccles
unfortun
paras
##lla
permanently
138
reverse
cuis
objective
hipp
numbered
namely
##uba
##strong
##pin
126
orland
##cr
commanders
145
ety
wiz
contracts
herb
ferdin
breaks
pitched
explicit
curriculum
aboriginal
sending
utt
##ilian
##anning
meter
iz
employee
volunt
##mir
destination
characteristic
administered
bryan
##atern
aest
reactions
migr
belle
rebel
sik
marcus
istan
##ompass
myself
punishment
cornwall
estates
drain
##umberland
documented
reforms
passer
sulf
wasn
##lift
kom
##manuel
##vet
parishes
recruited
istanbul
dere
dolph
##iate
quint
portions
cannon
trap
consistent
etym
professionals
##zon
gathering
olive
bearing
imprisonment
edmund
##inth
nh
##bn
interaction
goalkeeper
engagement
duncan
pianist
prepare
hul
neighb
shorter
emphasis
aa
##reen
farms
##hand
noticed
accum
encompass
pastor
##hist
##iper
##lag
clerk
##opy
bombing
##gon
specimens
nominee
dart
shed
wise
pupils
quantum
##asse
bruss
##quer
linda
graduation
exhibited
##rist
plains
girlfriend
albanian
ufc
jennifer
##iology
cuts
bik
##avia
rachel
##ija
sculptor
##jay
conquest
arsenal
knowing
negl
repeal
mild
blu
catholics
nationals
verb
palestine
palestinian
healthcare
victories
weir
philosopher
yankees
adjust
tactical
wan
volt
facebook
aerial
spokes
rim
chambers
circular
undergraduate
allegations
claude
##ellation
commanding
supplied
analyst
fourteen
premiership
volcan
dear
pupp
citizenship
spo
legends
aspect
##yo
neighboring
phenomen
coin
##ische
##notes
1830
uganda
taxes
##inery
apprent
##lia
##39
binding
anders
pam
hollow
divorce
predominantly
ruins
forcing
thats
manifest
wend
##ław
generations
cultures
gan
##force
##kal
fraser
elabor
##insky
inject
nearest
belongs
##inted
moll
surrey
arbit
##hero
glory
adrian
cylinder
##erie
hotels
bombard
1832
bhar
rapper
##illes
millenn
aberde
considering
##ogne
legendary
marines
monk
armstrong
##asp
gaelic
emily
gp
guitarists
statements
philosophical
southwestern
1837
sussex
performer
renowned
dug
lucy
winnip
overlo
gly
##ei
fract
magnetic
syrian
##idal
lawsuit
feminist
##rag
deliber
memphis
accommodate
maintaining
vii
thoughts
grim
cyclists
conspiracy
##hd
curtis
suspected
efficiency
fier
reid
sink
medall
zhang
sculptures
cinemat
middles
bust
ges
##market
##oney
brent
newfound
lutheran
allegedly
digit
##37
##asm
hast
##bery
plum
prototype
karen
##ashire
privile
exploration
##horn
ethiopia
flour
##uman
shifted
corridor
nasa
lancashire
laps
1844
thesis
glou
strang
chronicle
anticip
newport
muscle
preston
client
indies
arcade
##inda
valle
148
memories
##bis
ore
republicans
boom
winnipeg
seriously
jamie
eds
quarterf
saxophone
referendum
fairy
zimb
chelsea
melody
legit
observation
codes
hs
139
demanded
##anti
belfast
dressed
##riages
orlando
bundes
intense
regiments
sustained
alumin
beast
canterbury
helm
polo
intervention
emerging
epit
##ovision
transm
platinum
sinc
walt
alge
##uchi
lone
##acco
edgar
martine
hook
caes
prosper
137
counterp
##ombe
bibl
lineup
convert
wrestler
##hin
notre
##kir
##icz
##iii
handling
fount
lah
wur
##akala
announcement
##ulous
117
graves
luxembourg
grants
diplomat
##days
wednes
##marks
lightning
beaten
laser
fires
auditor
brigadier
cly
tril
##onna
rivals
kingston
flowering
##aeus
moor
blacks
lobby
kilometers
superintendent
##lar
destro
copyr
welcome
proclaim
##teries
facade
metall
yo
##los
##atics
interface
regardless
suburban
orbit
alv
embr
##iler
obsc
crafts
ludwig
fog
stair
computing
executives
##jev
fatal
abund
##abwe
challenged
wc
paradise
##ben
hoped
focusing
prey
hearts
consumption
indo
subway
trinidad
receiver
1838
ich
##ieu
para
streak
wasnt
fen
slo
##orum
ske
102
croc
kend
homosexual
uc
cuisine
brussels
stakes
pursuit
1841
lecturer
louisville
auxiliary
upcoming
##enhagen
##otto
jets
confidence
logan
doctorate
ups
##ede
##alez
trem
retain
##andra
##child
zimbabwe
baroque
bradley
reward
neighbouring
cardiff
dome
gav
doctrine
armies
##anca
tyler
##aping
##oly
trium
crashed
350
leslie
verd
download
sau
shirt
marble
chim
knife
boarding
1842
##aneous
mahar
recruit
ole
symmet
amphib
hydrogen
##arez
##orrow
brighton
tah
fbi
##rific
investigate
feels
verte
divorced
gibson
reflected
118
certainly
alc
119
moderate
##inos
stored
segments
fairly
beside
malta
ef
emma
mask
unanimous
##anor
iw
terrorist
caroline
explosion
appre
gel
experts
##andro
haj
##hra
swimmers
wickets
trunk
resur
georgian
wei
hopkins
bankruptcy
##oping
underwent
##fff
minne
attraction
renovation
ferdinand
springfield
trev
##roid
116
concerto
theres
ammun
noting
sacrament
unt
archer
dubbed
naming
biographical
richardson
bulld
colours
beliefs
bradford
wesley
mumbai
crazy
dylan
designers
rochester
entity
dealing
aims
horizont
nicknamed
grain
cambod
conferences
deeply
devot
eurovision
robertson
##32
furniture
discovers
mats
##000
shim
##season
tributary
shout
marian
associates
theolog
dollar
runway
dragons
brings
pag
ling
1839
edit
##active
rosa
rc
perceived
##oric
marl
abbre
##atem
shi
milton
saving
idol
twentieth
simul
nationwide
##kinson
colleagues
navig
comprising
extending
travelling
amounts
vault
governance
ammunition
dish
desper
merely
copenhagen
casting
testament
customer
jal
toxic
strikes
dynamic
rode
stephan
##gro
releasing
midfielders
##woman
altar
auction
##iley
separation
inhabited
counts
ellen
tow
jos
gaining
treasure
##aic
##etics
renewed
aunt
symbols
##tes
homer
hag
hispan
radiation
cello
tissue
sep
navigation
##uku
##prises
##add
brom
gov
transformation
##atin
editing
celebrate
gonzalez
inscription
unoff
relatives
criteria
nikol
worlds
##eve
raiders
dimensional
delegates
chev
maker
lectures
##core
1843
forgot
prevented
haleakala
intr
eventual
tomorrow
136
360
lynn
hitting
lucky
##wyn
##aea
consultant
146
naked
##essa
kenny
endangered
##ondo
kyle
114
ds
fluid
##amation
grandmother
unexp
ix
ves
##ilo
nsw
beau
finalist
absolute
impression
celebrity
tasks
beta
hels
##isp
##vas
clement
motorsport
##istle
suite
##obs
comprises
wrestlers
guidance
presbyterian
khal
glenn
hurling
##rang
efficient
confirm
pars
##ardi
joel
embark
sind
entries
##atsu
##enger
##dorf
##iffe
angry
amid
estonia
monkey
procedures
geographical
troy
##ilder
infection
circulation
1500
fet
argues
revel
copyright
physicians
versus
blast
dozen
cherry
striking
##ecraft
assassination
ampl
##ados
trek
##rough
chat
##esse
windsor
sanctuary
terrorism
##agram
diana
demo
frankfurt
engage
hoff
thurs
researcher
nab
balls
sustainable
booth
commitment
winston
floors
mk
##igious
##apa
thereby
addressed
##rh
mechanics
discipline
##itudes
consequently
taste
stationed
brien
testim
manages
confederation
##eded
##ivo
puzz
zurich
fewer
situations
marshal
postp
cancel
equation
santos
kok
##gel
americas
pregnant
exchang
proxim
secular
ik
mcdonald
committees
##ов
mysterious
seas
denomin
minneapolis
server
##lete
troop
vale
##rogen
biblical
authen
tanz
threats
raja
1836
lyon
stretch
deceased
1835
mog
bedford
indie
personalities
honored
vector
miner
rape
##cor
bce
##holders
fay
##hey
followers
aka
lessons
monitoring
jeremy
armor
kaw
advertis
destroyer
complement
emmy
cornell
rifles
salem
##nut
##ør
battalions
##azi
streaming
finale
climbing
reconna
kurt
silk
cree
##ocaust
kul
kob
endings
andrea
alphabet
bb
infin
nineteenth
repeatedly
itv
nass
morrison
paying
transformed
hank
lal
carroll
distant
tonight
provisional
displays
protagonist
quarters
emil
foods
harvest
audiences
kod
remar
##ateral
johns
roller
fus
rica
mentions
##heng
bassist
contents
uprising
ct
classics
struggled
reconnaissance
lec
##fu
##utical
ulster
enlar
closest
nationally
loose
frig
extends
guang
homet
sard
translator
utility
relegation
mixture
automobile
tears
##employ
boxer
hugo
cater
scouts
peruv
manuscripts
practition
telecommun
casino
ecology
##mod
allmusic
moses
accurate
##ifax
culmin
supervis
##inas
coordinator
circus
telegraph
kazakhstan
rational
##fol
burton
##itely
shak
requiring
icon
precip
stefan
enlisted
devast
spotted
holdings
holocaust
##osition
annie
cowboys
##oan
wagner
drawings
severely
cyber
shrine
##colm
councils
falcon
occasional
hayes
seized
britt
educator
mandatory
bengali
pga
astronom
lease
pied
##estrian
diving
theodore
hometown
##run
actively
batting
##olin
km2
listings
centered
##urated
observatory
collector
ethics
##nings
unexpected
##kok
playwright
apollo
targeted
vampire
reptiles
tune
consens
etymology
qing
pronounced
easter
facts
marion
##andy
artif
##fb
##zed
iso
cleared
jungle
dramat
wilderness
fcc
tiny
developer
stronger
mock
recognize
optical
##emann
malcolm
mund
##stead
staged
yuan
consent
theoretical
conducting
yak
onwards
##appa
tac
##hf
portal
rejo
personally
neat
reynolds
##enzo
martha
trails
lecture
cyn
sne
##cestershire
##quez
willie
truly
reluct
altered
nobility
galaxy
carlo
lebanese
##uj
greens
##ulture
##auc
##lining
siblings
creates
restore
jab
unemploy
##aders
unve
easier
clinic
guatem
invented
##gent
halifax
dayton
strengthen
##emon
stafford
independently
pdf
°c
dancers
yar
moham
pab
prevention
prostit
##onde
cohen
##unes
thrown
requirement
nobel
absent
unw
newfoundland
barnes
speaks
catalogue
locality
surgeon
inland
decree
lancaster
attitude
topic
##egro
##isle
flute
garner
##eley
compensation
colombian
nato
learns
contribute
exterior
loves
##books
riot
##len
spart
mohammad
fragment
perez
1834
della
bomber
##uru
wednesday
crowned
inver
##anted
sofia
protocol
stability
bis
dot
##omar
bohem
humanity
frog
astr
bike
bulk
##apest
holder
plates
buzz
wyoming
hate
joins
hosting
lifted
##hart
cage
evangelical
##cu
##alm
cruise
atomic
overw
pamp
messages
pipe
fles
varieties
tables
##hev
picks
##rock
storyline
hawks
heinrich
edwin
reass
investigations
genes
screenwriter
wwe
##list
headquar
terrain
epid
marco
enable
albany
dra
paramount
utc
dorothy
nacional
dhar
napoleon
kinder
inclusion
confusion
telesc
##isy
treasury
chop
ordin
impressive
dwar
owns
triangle
silva
pavil
ultr
wyn
##ods
submission
directing
concord
watts
permit
juven
aberdeen
betty
hms
richards
##azar
naples
trumpet
algeria
och
directions
skiing
montenegro
##inski
operas
geology
hanging
accidents
sleeping
martinez
acquire
gustav
elimination
minimal
taxonomy
zam
sear
slip
##ochem
thames
kyiv
archaeology
marcel
keen
tran
jorge
polyt
instructions
propaganda
millennium
##ifor
withdrawn
##ecies
observations
leip
privately
expanding
yuk
twitter
##berger
curve
##nar
smiled
##erver
##uke
##icking
constantin
##idt
##iza
potentially
##engths
moreover
macdonald
##elong
trucks
duchy
varied
feeding
eleg
syrac
consolidated
##annon
fees
geneva
##mud
pref
titan
##eur
##rav
##wy
interactions
authorized
synthesis
rivalry
##ilitation
upgraded
chicken
zones
##stadt
html
array
neighborhoods
imposed
guided
collapsed
plymouth
sensitive
ish
##wned
upset
trips
##ylum
courage
##ieri
til
noc
pf
canoe
rash
paragu
accounting
##sburg
impressed
##abi
butterfly
thermal
empress
sailors
presc
##etto
lesbian
somewhere
antib
##atoes
##arium
carved
boris
findings
rainfall
veloc
referee
##lay
numer
cere
##aid
##anmar
enabled
humor
##regular
burke
fingers
1831
collecting
elliott
johnston
metab
buddhism
sequences
mw
jub
##ipher
unified
ballot
peruvian
##strom
julius
ussr
dul
irregular
shark
cubs
encountered
pled
yun
##bot
prair
reunion
consequences
porn
listening
viii
lump
sweep
alexandria
authentic
rulers
maiden
phant
##atories
syracuse
norton
cay
##ahu
lance
nath
missionaries
##iden
##recht
stap
arctic
##power
armoured
randy
improving
##amy
automatically
hopes
monks
fond
kerry
equality
ceas
consec
##dioc
##rup
rost
coch
oliv
proud
berry
translations
rosen
outc
detect
##isi
newman
hex
pend
plateau
lighthouse
streams
uncom
browns
lynch
ucl
jewel
##agne
amalg
##zel
costume
bicycle
archdioc
inquiry
tribun
servants
yosh
##olith
ved
##enko
##group
clients
rubber
ket
creatures
##prised
##occ
cooking
inches
ffffff
duk
##anas
fergus
ibm
trend
practiced
concentrated
agu
telugu
equity
yi
witnesses
hp
prehist
##fight
carey
shu
##ulsion
harmony
fusion
##ician
geological
##awi
panels
##beat
instructor
tobacco
zar
pursued
rays
vaccine
rainbow
denis
surprised
ley
malayalam
consciousness
##how
starrs
##iman
##ounce
griffith
chass
algebra
reads
##cz
decrease
muk
algorithm
##ск
carriage
terti
##adors
tender
contestants
reconc
subfamily
aston
nj
derek
yemen
fever
##adh
herman
disabled
broadcaster
1815
wart
enhanced
##lore
nadu
duration
##avian
disk
lug
rend
reef
foundations
cfc
pard
diploma
handball
preparing
hect
constantly
answered
favourite
##itated
acknowledged
bangkok
pyram
properly
plantation
disorders
mayors
darwin
shepher
flooding
mum
relax
madag
tenor
teenage
ain
bard
##oves
budapest
tailed
meh
remn
evaluation
bloom
uttar
##sted
ceiling
unfortunately
polyn
amar
barracks
rt
##atum
consensus
knocked
nicolas
##inge
transported
gaming
albania
maple
lum
##amba
##irts
marking
transmitter
suggesting
revolt
##ustration
carb
forec
carne
vegetation
elm
##cock
barrel
##ications
myanmar
deals
fights
explanation
##chron
punt
##rep
##athi
tertiary
hardy
rw
adoption
mathematician
scots
enterprises
pollution
hr
superman
portraits
dd
triumph
##roke
creature
davidson
thursday
qur
dash
##enary
shrub
##rible
schem
##gang
##esia
jumping
autobiography
soprano
environments
promotional
apolog
boyd
##dan
basement
currency
##urai
freshman
drift
hiv
crest
##usters
##enas
knockout
##urance
##arin
stur
chains
wolver
accus
spat
encourage
##aton
##zan
climb
##millan
##rows
interpreted
comprom
subspecies
joshua
chocol
##antes
guarant
arche
assignment
##arag
##hurst
revived
tasmania
##andi
grac
item
sacrifice
maintains
outs
diary
proposals
tribune
##piece
mccar
griffin
worse
tourists
lens
##amine
explore
monroe
rex
superhero
##igi
seoul
##ogr
blair
scorer
prestigious
##icester
shallow
##osaurus
brock
badly
ballad
1833
ernst
crawford
zool
deaf
sorry
configuration
volcanic
shire
##onduct
guess
##asium
couldnt
throwing
##bern
##arius
perf
maori
mastering
innocent
uruguay
phenomenon
leh
munster
chu
criticised
evident
##iated
wildc
spirits
invitation
leipzig
##uca
alto
obvious
calm
holes
mobil
expatriates
topped
specified
rak
princes
teammate
vend
##irt
anx
rotation
pilgrim
##ictions
activated
gujar
##pc
councillors
##uate
##ishn
##lined
guys
bride
##atham
breakfast
bacteria
investors
gymnastics
conjunction
ruf
sue
##orne
bolivia
dian
quoted
##kett
##iae
hierarch
shrew
blocked
inaugurated
priority
treasurer
wards
awa
cran
panthers
synag
pounds
cataly
nodded
okay
gian
barrier
virtually
saxon
rican
##rium
harsh
gog
tactics
particles
forbid
##shore
renovated
atlas
knox
uncon
guerr
##sten
hok
cluster
shri
clara
bonds
reconstruct
fertil
garage
cia
pitt
liner
boost
busy
falc
hispanic
diff
cyclone
romans
magical
refuses
loans
extraord
nordic
unofficial
gle
absorbed
elis
softball
##the
##mc
##oder
weaken
walsh
##nic
vander
adolf
viscount
orphan
headquartered
burst
trailer
timothy
sg
##jin
loch
fiji
kai
freeway
glob
##si
footnotes
##iban
feast
##escent
questioned
meyer
observer
##mail
assembled
opposing
filmmaker
proceeded
##oys
##gard
solely
stuck
##31
lima
explorer
##stock
25th
correl
fid
##anto
traged
lifestyle
mane
vulnerable
##onne
##mph
walks
witt
calvin
fug
anger
abortion
merced
depicting
dorm
hos
##itory
##ether
cic
primera
integral
##ean
##endra
loaded
##wen
##45
##grave
zion
oy
equally
##birds
missiles
strait
krishna
mn
##esian
indirect
##ancement
notor
delegation
wong
##onica
paralympics
filter
roma
overwhel
draws
amazing
cis
ez
typh
extraordinary
tension
apoc
cameroon
lanes
brandon
hiding
##vic
clem
cooperative
layers
macedonia
##acular
leicester
faction
measuring
rpm
governed
##itious
##ku
roberto
zu
providence
illustrations
##jiang
scattered
mell
bless
airing
spear
##rous
dece
cruiser
remind
generate
##olan
magist
handled
mascul
chaos
judgment
weigh
believing
recreational
##amon
accomplished
abandon
dispers
claus
negro
dirty
##este
ner
##oline
frost
educators
1820
blaz
savage
##front
abolition
capabilities
stom
intensity
portsmouth
varying
bark
sketch
horizon
sits
custody
peg
maya
tongue
##elsen
wash
offs
portfol
compat
shoes
skate
tough
landmarks
occurring
archdiocese
presum
##66
dimensions
##alus
##acing
disl
barber
economist
dodgers
incred
monsters
taj
aleks
firms
##inki
##elect
jessica
fountain
##ashtra
monica
theatres
powder
marg
homeland
jacksonville
##rition
ned
motif
tens
##py
withdrawal
orientation
publish
liked
themed
mature
##uctive
atp
supporter
rushing
accidentally
proportion
##bone
surve
chronicles
##ifa
warrant
institutional
agrees
verses
pour
penet
trace
gymnasium
chant
##gee
xbox
geneal
bitter
webb
merchants
##entry
offense
expelled
innovative
pleasure
greene
limestone
ding
prompted
##irl
redesign
spiders
##word
##oded
dwell
tuber
superc
sponsorship
consequence
##restrial
kern
##imer
searching
physically
patricia
hano
##xy
##asis
##rations
sanche
georges
##engers
melan
diagnosis
##rea
dimension
ordained
##rates
##ographers
madagascar
##raid
condemned
drives
deposits
adri
modest
convey
fitness
sto
lever
braves
barely
insect
bombers
flags
trilogy
##had
substance
specimen
sene
##opus
vicinity
kv
healthy
mohammed
miy
tear
realm
confident
developers
bruno
sacramento
111
synopsis
horizontal
nou
##aris
jing
flagship
tackle
hern
hm
nl
exem
stabil
lr
sanchez
##orus
chrys
southampton
##oyd
redevelop
750
interrupted
sabha
reopened
strategies
##iscal
lawn
syll
highlights
##loo
##harmon
ribbon
circles
harass
folklore
atlet
graz
whites
janeiro
kosovo
forbes
dign
##prising
##igs
chef
##zzo
cairo
convoy
interviewed
ancestry
accordance
##ogical
slopes
dew
quit
halls
retrosp
##aceous
naturally
carpenter
juda
tradem
1810
dynamics
theorem
##ithe
kilometres
##tc
swall
payments
kuwa
aggressive
dio
introduce
jeffrey
distinguish
boxers
summar
chassis
##atu
amanda
miche
stint
vacant
electro
formats
lips
desk
oxid
£1
fuj
reserved
stag
edges
##hend
manufacture
sometime
raven
##zie
marina
vor
potter
patriots
sally
crater
##ographies
santo
##iety
eighteen
rebounds
console
emplo
quarterfinals
cognitive
##immer
appreci
floating
medalist
##stration
flet
##ahi
cheese
unclear
##idays
dell
criminals
ceremonies
##illance
##aul
councillor
rowing
cigar
instant
mesa
pistol
millions
starter
ecos
anto
plural
estimates
qatar
sack
oslo
removing
acre
expressway
ally
tickets
athen
detachment
##stra
##tera
attribut
##ifiers
torture
1828
sponsor
agreements
luk
##xx
yas
commissioners
workshops
pleasant
lets
castro
hoping
1814
##alt
prairie
thomson
commentator
lunch
francesco
##oughton
xv
michelle
regulatory
tomas
nd
poorly
surveillance
guad
couples
##shi
forgotten
zamb
##ako
narrator
##ono
locals
disagre
yourself
##oso
betray
##atan
mou
benz
probability
decreased
##bys
##elo
depicts
##linary
nm
planted
koch
cement
mercy
funk
immigr
legally
vick
##phone
##ulates
rope
nes
mcm
charleston
mab
##eville
carefully
stam
subdivision
nickel
ambassadors
dining
vars
yeah
pepper
folded
vr
##elyn
baden
dus
hog
websites
venezuelan
pageant
mongol
erik
longtime
kara
##raf
slot
kane
involve
gravity
gains
plas
lasting
mits
chak
churchill
proven
##heart
advised
##holder
gum
continent
ecclesiast
nk
zap
cedar
pes
bury
surpass
1829
stup
chapman
backup
lep
surfaces
##natural
joey
##ecca
politically
throat
zhu
##rina
demonstration
phyl
taxi
##ilee
##avier
dimin
floyd
rd
bip
hatch
##alon
graduates
define
shadows
prohibited
ald
panch
supervision
##iso
##yu
spelling
repairs
genesis
##nick
luxury
ethiopian
receptor
brilliant
proximity
salmon
fragments
separately
##aram
toyota
arguments
fuller
1825
kc
##ocation
certifications
cameras
##esses
##cul
funny
freeman
##alan
passport
considers
sicily
dioces
##neum
dens
##arp
klein
##heid
flames
disgu
nobody
subordin
chocolate
cir
janet
seam
##urities
##eroy
batteries
##istent
consideration
branded
asylum
tide
crucial
##des
##eling
##oot
prussian
jenkins
rises
rafael
fernandez
livest
##asan
kinds
czechoslovakia
enrollment
##etz
quarterly
happens
##arte
vernon
ld
engr
##qual
##atz
##esti
watershed
##ologically
mechanisms
wishes
##nels
alder
desired
nicol
elderly
maharashtra
dental
amen
sheikh
##oved
elephant
transfers
inherit
remarkable
storey
woodland
##rahim
maxwell
bundesliga
biz
tues
prospect
scales
##anned
##garten
whisper
##iens
rhine
obit
##itative
alk
roland
bant
tooth
feminine
wireless
swamp
##tenham
trainer
outcome
berm
##dor
transact
clo
genres
pottery
exhaust
##99
saga
##inte
clou
galleries
kau
laf
zomb
##athe
unifor
bing
rapp
##ynam
wagon
sherman
staying
locked
beard
##mor
dee
emin
discussions
##ostic
##ophon
miz
##into
karnat
huss
backs
gardner
ambul
flies
lia
nonet
geoffrey
noel
pavilion
hail
112
madonna
##uctions
neill
kurdish
rehabilitation
submarines
slope
mcn
wen
1824
##iu
##leigh
counted
introducing
laud
summon
dense
ive
##rians
maternal
companions
stun
alberto
mcd
summers
unveiled
mccl
hampton
straw
##grad
voluntary
rendered
##zing
italia
confer
poles
leopold
uzb
##cephal
##heimer
ucla
##esta
argue
tucker
midland
proclaimed
suffolk
broncos
afraid
presenting
investigated
telecommunications
cottage
##ilation
conceived
varies
highlighted
##omal
midlands
##irical
rounded
advocacy
boeing
sociology
kicked
correspondence
##orted
coral
transpar
mere
harp
td
bigger
##icular
drake
organizing
doubled
ips
genoc
protecting
glam
jackie
dion
supers
##imi
wolves
##ativity
##heric
##hm
conviction
ultra
sharon
nonetheless
uzbek
hermann
##onsc
angela
##ledo
admission
1818
##rip
pharmac
tb
trapped
premises
velocity
##acio
magnitude
exhibits
adequ
ligue
posthumously
hydra
cv
controversies
miners
dias
nerve
cheer
dirt
terrace
tatt
commercially
##erner
dixon
algerian
bottle
mets
##ships
helsinki
vag
panc
##hus
rca
uci
##ellar
diagnosed
##48
carnegie
katherine
tc
bulls
sophie
lund
shuttle
doctoral
demolition
##rels
slovenia
hypothesis
1826
3000
nix
duff
1821
sper
destroying
quinn
institutes
governmental
##uni
noun
fk
rescued
carm
arguing
##hof
eva
rector
elector
1813
estimate
anywhere
botanical
jointly
bs
pix
vl
##ommission
ibrahim
decoration
gerard
hew
kingdoms
buddy
patch
lateral
buddha
responsibilities
lisbon
karnataka
conform
riley
fow
granite
trevor
beatles
unders
petroleum
##idy
macc
mothers
armored
performs
pok
geometry
immort
humanitarian
cunning
measurement
bulldogs
##ardy
dissolution
helena
##isers
##lane
turbo
seating
boxes
mercedes
bombs
este
##pi
placement
##ordination
particle
apostolic
conven
baldwin
caves
rack
jerome
1801
repealed
##uer
##uga
##75
oss
##will
##wind
##aji
bra
kamp
bavaria
testimony
theaters
shook
##odon
inspection
##ango
obama
emotion
loos
##hran
boliv
sutton
##inks
inning
shaft
##enza
##ogo
##iker
disputes
sings
clyde
wonderful
accompanying
##wara
reiss
posit
deterior
challenger
dys
##emi
nationality
ecosystem
##nn
bloody
stead
controlling
phyll
kunst
disputed
arbor
postal
challenging
##aby
lined
calder
duches
casey
revision
reviewer
wished
clare
downs
dispos
comprised
varsity
##post
newsc
##hardt
fathers
usc
citation
dair
dropping
crews
rebecca
morton
ingred
lago
##atro
kashmir
warned
artifacts
noah
##iciently
highlands
fiscal
accol
nt
rao
guatemala
atletico
##sson
parkway
detection
philharmon
middlesex
certification
imported
osaka
##pora
philippe
senegal
cw
percy
bess
##agara
sixty
##ultural
##rosse
collier
mhz
pension
villain
##gender
textile
##iak
correspondent
##amas
parach
guru
judaism
##iqu
enjo
paralympic
errors
flesh
rebrand
##idan
coleman
linguistic
fletcher
fake
incor
emigrated
responses
coloured
##oting
auditorium
detention
sect
consumers
crust
doz
alma
enorm
##bat
##aceutical
##shine
affiliation
median
proceeds
allocated
nost
intelligent
lily
##ugh
preval
##otypes
basel
alignment
sunk
##ра
settings
##gren
boyfriend
machinery
lunar
##rand
ethan
isn
physicist
preventing
##ledon
jacobs
##hee
lup
tuc
beds
seemingly
##pit
anthem
stark
concurr
billed
dances
##enstein
mang
##assic
philosophers
possessed
inventor
nervous
tracking
acclaimed
tart
baltic
favorable
sansk
stranger
##rice
entities
##ormal
depends
venus
pater
##through
brewery
##ipur
bells
wives
plug
##flix
monet
monter
complaints
doming
averaged
lau
toledo
communists
##utta
considerably
planes
seab
membrane
cruel
totally
contestant
##nis
##nai
squadrons
wreck
mikh
##atched
cyt
##enues
gazette
resided
##oj
clause
latvia
mickey
##gor
##olar
lineback
decorations
wanderers
nina
initiatives
worcester
assume
tamb
za
examin
rushed
##nian
regent
##worthy
gus
investments
##beck
rectang
peaks
marriages
surprising
destroyers
##hears
determination
belarusian
aristocr
##afa
sanskrit
battlefield
450
twist
220
norwich
pressed
##asth
smoking
categor
##ienne
watt
##ilus
##held
tanzania
assert
accommodation
jah
##onen
abbot
##chel
preceding
psy
##andan
emeritus
##hot
##cliffe
makers
butt
magnet
vikings
abbrevi
calculated
##yar
acceptance
vie
##iuse
ecclesiastical
##maker
##alla
##iatus
voltage
##omez
serp
forested
cure
owl
alexandra
panic
lacrosse
depictions
##ни
##uras
technological
arose
whale
##ellers
cambodia
pablo
##enny
flee
gop
flowing
stopping
underlying
intel
drunk
shepherd
##ouch
gull
##ands
disability
lumber
##hett
##arre
bulletin
gad
##wana
rolled
viz
wak
als
compass
phillip
advancing
vy
comune
likewise
kolk
crop
##jani
parody
synonym
##arms
predicted
crab
bould
viral
examined
whitney
##uning
torres
dubai
bare
##aternity
religions
promising
beetles
##anco
mccarthy
unic
rockets
bounded
advocated
diaz
##bh
stairs
molecules
siber
raids
humanities
hutch
reinforced
incarn
prosecution
herr
punch
necessarily
viola
##yen
bea
##actic
decommission
bolton
cyclist
consistently
##hao
##aurus
xavier
##ounters
voiv
nz
ae
complicated
shane
pregnancy
beetle
bax
##antan
ende
auburn
##mere
wah
remin
wisdom
##eros
##roft
1827
giuse
openly
beats
steady
overcome
solve
explored
albion
valve
ancestors
propriet
invis
steal
christine
nwa
suk
threatening
papua
reunited
constantinople
delegate
wade
fres
kak
fitzger
##yi
successive
shank
ruby
mentor
##base
nicarag
approaching
##ml
netflix
deployment
surrendered
astronomy
##odies
aerosp
portfolio
encounters
##antha
##lair
jagu
everyday
backst
bian
##bes
agnes
keeps
yah
solic
charitable
monarchs
penguin
gund
undertaken
tian
mandate
unsuccessfully
##heads
zel
##oki
indy
traces
cologne
cheng
gomez
hannah
##cin
forget
crane
beaches
suspect
lightweight
##rified
immigrant
schl
wald
sunshine
vatic
ink
##eka
synchron
chate
swords
##onn
ecological
kem
emissions
dunn
inscriptions
alley
salary
##ripp
##55
hammond
pierce
##lean
airpl
insisted
ashley
partition
myr
healing
sanction
ferguson
cecil
emi
##eves
differential
struggling
tko
skip
mistake
muller
honda
bolog
##cent
##eco
stomach
invention
masculine
strictly
tragedy
factories
##iseries
germ
##46
##minton
dudley
twelf
catalina
capability
iris
rotten
pomp
chir
specifications
trademark
contrary
ricky
##edo
intens
kut
nay
prizes
spite
fundra
sends
prehistoric
1822
seventeen
embarked
endorsed
invas
revealing
##annah
carnival
patterson
##izers
jenny
sta
arte
mega
badge
tracy
whenever
emirates
postseason
hazard
augustus
availability
remake
marching
twelfth
pioneers
schmidt
fbb
pie
pharmaceutical
perception
badminton
eleventh
fossils
##bye
leased
disco
casc
slide
classroom
shawn
miniseries
airborne
statues
clip
##geon
macro
anthropology
##hips
sidney
##building
chatt
scroll
secretly
##zyme
##arity
flint
transgender
1816
loyalty
viewing
binary
constitute
cret
humph
toil
##affe
fruits
spare
##took
malt
accuracy
dundee
##amoto
georget
elaborate
rna
1819
tribunal
dump
fitzgerald
cym
ks
##bler
brave
##ylon
unlik
ws
taiwanese
lots
1823
##ng
sach
racism
##hya
achieving
survivor
dishes
careers
terminology
gim
reson
candy
saxony
elvis
##icity
incomplete
weld
sting
enclosed
basque
conson
##dc
secrets
undergo
##walk
hick
flown
update
guidel
devils
abdullah
induced
zach
genocide
##owing
eden
##abling
##hausen
organize
##emia
##opters
reprinted
guidelines
##lord
interference
irving
byr
exercises
frames
kov
adds
screenwriters
##agic
notion
fantastic
leth
accent
castles
leis
dialects
vijay
##hop
sharks
##osaurs
clayton
sailor
aquatic
orchestr
henn
##church
ignored
lv
##covered
licence
riots
tromb
homeless
newer
jumped
rides
caled
lj
wax
ears
##88
##itas
clash
descended
fiba
mvp
schne
mighty
anonymous
extant
breakthrough
##oding
modeling
toys
##adia
kus
tuesday
giuseppe
pastoral
50th
prints
civilization
teamed
dealt
countryside
vaugh
pang
stack
##erick
##rics
##hyd
facilitate
bermuda
##chus
##izations
singular
amus
modes
rahman
affiliates
unesco
maurit
wartime
rhin
wig
##anus
europa
##werp
strain
hardcore
##adic
anyway
wicket
deutsche
donations
quarry
jill
amber
porto
everybody
##anks
##ysc
1806
gifts
nurses
recommendations
nah
##layer
##amar
linux
gloria
##itters
wav
postponed
transactions
1817
contrad
phantom
joyce
nos
overth
wounds
gloss
hunters
##orian
statute
seeks
##rosion
buying
venet
verlag
horns
escal
kannada
contracted
accredited
astronaut
cbc
avi
eleanor
1803
dob
consulting
lill
likes
peaceful
riverside
##iche
handic
activism
embedd
glacier
##vant
handbook
lid
titans
##chem
witnessed
obituary
##ritic
smash
webster
fluor
planets
bates
##rops
zagre
dex
recount
schwar
##ibald
mugh
audition
devi
antwerp
tunnels
objectives
fork
rp
tus
helicopters
dres
turks
##umen
sizes
unlikely
1880s
oath
##isive
unst
hostile
schemes
##igrap
prominence
pud
##ст
arb
linds
shortened
levy
evol
marketed
##enov
snap
monarchy
##wi
113
##unting
frozen
conventions
irrig
demonstrate
cultivation
##rish
##ells
obtaining
conrad
##oco
preparatory
##itational
conservatory
aerospace
bally
landown
##rance
bronx
palomar
polytechn
##urus
crim
tik
sphere
critically
intim
underwater
aided
kry
sikh
livestock
upgrade
kras
celebrations
##thouse
carmel
##owitz
flam
continuously
wimb
deadly
illumin
corners
prussia
penalties
##hir
homepage
mikhail
##mu
##ometer
leuc
meadow
1798
variables
stutt
##osi
spelled
pneum
##space
vass
omar
##opic
screw
enlarged
heating
##agonal
screening
##akk
peac
bowie
brenn
##acement
contempor
destinations
opinions
##rio
##hou
aesthetic
arabian
kuwait
vicar
sain
gubern
freshwater
sterling
decay
mafia
miracle
pike
outlets
##isse
tae
mascot
ort
sloven
grabbed
##otherap
dissert
hbo
brady
hyde
cumberland
lineage
##flies
##alli
resolved
paths
moroccan
kub
##uting
##elles
adaptations
##ennes
keeper
integrity
reservation
narrowly
##utz
macmillan
souls
wanting
viking
reliable
kolkata
##otive
##ucci
lacked
turin
attractive
zagreb
realizes
leone
prophe
collision
rolls
rer
campeon
explaining
##ribe
respected
canceled
hij
mush
comparative
##elly
qualifier
decorative
##leen
drainage
schw
valencia
1790
forbidden
rous
minds
anatomy
##unted
flame
equations
##forest
illustrator
skilled
dwarf
salam
eri
plaque
boots
##atti
deity
lovers
kindergarten
supernatural
cac
123
rapids
hartford
wizard
##uard
swept
##rically
professionally
goss
phillies
pue
##iani
incorrect
bt
organisms
##umble
owing
flem
pbs
##akov
josef
visitor
speeds
oversee
paw
gc
carson
##eps
complications
dru
##gage
routine
struggles
benefic
moist
marginal
dealer
beaver
savings
bergen
##onscious
explosive
##olithic
##etus
striker
mash
securities
tunisia
gale
##itte
mohamed
##club
bombay
polymer
warehouse
dominic
clarinet
tallest
scandin
tibetan
##ellan
motorway
tad
realize
marty
manning
wimbledon
##unciation
photographers
plent
gateway
prose
royals
risks
falcons
exeter
invaded
ease
##dia
##lude
llc
distract
brett
semifinal
lambert
tate
##sover
colts
1795
clut
violation
##atur
newark
courty
prophet
deserv
rn
##antis
scenic
infinite
ely
##itsu
empower
answers
songwriting
##ifolia
fungi
eliminate
terminated
pirate
beings
countess
##ecker
dawson
papal
##bard
##alling
conquered
wb
##lis
intact
sanders
haiti
1802
emotions
ladder
##rak
gos
tired
marched
projected
hitch
theft
automotive
memoirs
reverend
happiness
stalin
gubernatorial
##77
##eches
linn
honest
segreg
atmospheric
##bourg
kidney
pasc
##onte
caesar
pointing
habitats
##mington
provider
evan
tud
jockey
peers
comedians
sinclair
repeat
clearing
reper
cerv
smallest
dolphins
omaha
cors
hc
rm
buchar
rabbit
sitcom
mackenz
rudolf
sno
##upp
willis
fails
worry
acet
aviv
##baum
hymn
aria
##dar
1808
hassan
evolutionary
##alom
latino
bombardment
coordination
burma
coronation
mural
segunda
preceded
lent
heal
hert
ses
vatican
chaired
halt
tehran
cups
presumably
campeonato
combining
marker
armour
sectors
info
enacted
aaa
##rights
##cane
##onda
juvenile
coventry
andreas
donna
##86
arlington
neighbourhoods
deeper
couldn
endeav
georgetown
kens
tau
blessed
delight
scholarly
surgical
bays
reflects
fischer
stuttgart
swimmer
lindsay
##abul
##otta
constituent
rage
gior
salon
sentiment
travis
urs
isolation
##tures
##44
hellen
##chair
advocates
lantern
spike
terrestrial
multim
##aires
##uana
convince
fury
stip
##abh
infected
meal
thinks
##ischen
cameo
##jor
aless
circa
contacts
piz
lacking
eternal
ravens
lb
gorge
redist
puts
documentation
default
##bas
##uum
accolades
namib
##dles
advances
daytime
vocational
mug
##fred
requests
##alk
##ulia
urged
duchess
exploring
laurent
resemble
bucharest
pom
##uala
portable
paz
precipitation
jian
spectators
travers
enormous
##endon
shade
valentine
wn
##brit
shy
##avo
methyl
optional
30th
chennai
practitioners
##athlon
andhra
uniforms
##200
damages
contributor
het
1805
clouds
duet
tobago
##iade
benson
thur
acids
carmen
conting
gandhi
medallists
##imar
##sha
unemployment
static
finite
similarities
dairy
ranger
##atas
detain
phases
herm
diamonds
##hampton
##eer
grin
interrog
assumption
canber
##zburg
comeback
wip
leigh
buckingham
descendant
phylogen
informal
afterward
##thood
23rd
strongest
nw
lankan
interf
sued
peterson
faithful
cadet
comfortable
erie
##hara
sunset
prosecutor
waterfall
alert
teachings
##arya
curling
ls
##stor
##arton
##ascular
##hell
##cot
commands
finest
mackenzie
tug
cus
holt
##ande
linking
metac
chromos
mari
physi
governorate
titular
ronnie
virtue
##uine
directory
shoulders
reminisc
##witz
##xide
gros
1811
##ongs
clad
fears
spreading
curved
sevens
commodore
ballads
autonomy
##forms
complexity
prohibition
tasked
subm
bae
##ogene
cobb
sided
investigating
philharmonic
reflecting
valued
insurg
##ogenic
generating
taliban
absolut
##pts
sheets
latv
nutrition
dm
synagogue
##jee
acute
avoided
gag
frustr
##grass
##oire
##gg
assy
bedroom
pearson
reproduction
leisure
haus
pens
1807
lighter
parameters
supposedly
ave
congressman
fritz
distur
ninja
advancement
bonn
insign
townships
teenager
paus
##alp
##eti
abn
collaborative
ideology
thy
telescope
stub
develops
##avirus
xin
disabilities
122
##keepers
mph
spacecraft
gin
impl
##umar
controller
wikip
##abl
profits
divide
240
elisabeth
canberra
chern
##shan
consortium
paraguay
##hora
dz
minerals
hernandez
tann
overtime
saves
exempt
1890s
1809
seasonal
operative
##fold
intensive
angelo
baghd
goodbye
verde
dozens
##aldo
waterloo
shirley
##zyn
guides
holders
forestry
precurs
dumb
1600
disqual
rup
partnered
##qi
##arf
builder
humid
##iary
terrible
bologna
cep
yoko
levi
##ophys
refugee
chung
winchester
libya
trout
rehears
capturing
burnt
##adian
wein
sentences
vfl
measurements
patriot
mih
enabling
breuning
##leased
maggie
##aniel
##arat
##heed
nipp
exceptional
coven
##ikes
##rique
clarence
##elius
corporations
analys
##kirk
ump
koh
adher
climbed
carlton
##zzi
##pta
fisheries
iber
yearly
naw
derbys
abbott
gujarat
loun
kop
nave
suffrage
##ipel
breakdown
cory
vista
##jud
kav
filling
bryant
astronomical
enthusi
dove
logistics
dana
##cho
demanding
myers
templ
opted
waited
##ographed
trades
rouge
invisible
rajasth
paved
bits
##inated
tomatoes
##sein
##landers
abbas
jesuit
##imon
mons
emble
finishes
holidays
css
##neath
isbn
dams
krak
carriers
engaging
steering
paler
1804
metals
##oped
tributaries
##uria
wrapped
##ioned
stephanie
troubles
mint
curse
immune
tubes
toss
securing
jum
##flu
##asaki
providers
##eit
##idian
22nd
thresh
lorenzo
fuck
shannon
shooter
hastings
utilized
##fried
##ibus
midway
euc
augustine
antis
excavations
bye
##awar
teammates
barrett
cassette
unreleased
##foot
cove
brigades
magnus
1793
installations
asteroid
kell
pasha
penny
##emberg
instances
cull
protector
1794
yus
protective
avant
explicitly
sworn
invested
pulling
simulation
cald
huang
corpus
cheap
cylind
bols
dic
dover
omn
hunger
suffix
embry
inventory
pyramid
##yd
##ska
##aden
pagan
bean
sophom
hectares
emmanuel
displacement
derives
discharge
inception
neu
johan
imaging
screened
derbyshire
gambling
modifications
##otti
121
##coe
nir
24th
detected
nim
eugen
underneath
angles
stats
unh
1799
raced
seth
composite
sque
whip
shapes
thrust
eman
allison
jeal
monasteries
athe
asset
mistaken
gou
##fest
shiva
baj
##anu
settling
financing
wheeler
vowel
##jord
sis
localities
majesty
##araj
rats
##ombo
conservatives
herc
##iad
##itate
##eaux
mia
##inga
rans
volks
nicole
rita
somalia
##ariat
reflection
offshore
urdu
chun
excessive
##bold
higgins
eh
##idea
rox
caste
poc
##daughter
cramb
instructed
careful
simulcast
##onshire
antoine
showc
freely
magdal
discussing
shab
augusta
sage
vint
classrooms
torch
yacht
shap
touched
##arc
hin
regina
weaver
jh
ashes
starr
broader
jubilee
sandstone
coordinates
limitations
amino
reporters
pseudonym
matthews
lonely
piedmont
ambulance
##bred
photographic
reasonable
##ounces
digest
predators
preference
dissertation
##oft
adviser
packers
judo
eun
zak
metabol
jug
macedonian
handful
##entric
##erville
##ums
substr
##print
remnants
corv
##vae
##orio
##ptic
mongolia
stems
##matic
spor
drops
incorporating
pushing
ivory
angola
mour
amusement
bihar
directorate
relieved
fence
niss
peaking
colleague
ramon
##las
proto
##hawks
enzyme
communicate
pratt
beverly
hare
defines
loving
mice
##lements
voivodes
privacy
pipeline
##dock
##wning
berth
snakes
robust
lexington
coupled
##avers
shear
combine
simmons
##activ
module
arth
orioles
linguistics
cheek
undis
socio
##elic
licensing
retrospective
consul
gat
expense
barker
midwest
madras
##df
ecole
premium
##xton
##esy
mao
nielsen
saturn
##100
##stop
lenin
sq
##rors
##electric
##kind
impr
succeeding
amalgam
chartered
gyp
weber
protesters
feared
professors
##lio
avengers
christie
syndicated
##amous
preparations
identifying
pter
madame
hello
rows
applying
shipyard
frederic
cong
barang
appealed
dorsal
byron
precise
excer
reck
laug
1789
remarked
addresses
rectangular
##iances
mayer
alfonso
hansen
buk
roses
insert
guarantee
##64
##advant
1792
cao
##ocy
recruiting
fascist
bp
fas
loading
expectations
poker
tensions
##ifi
acquaint
accepting
laboratories
shells
##iw
bees
kes
burden
dedication
##95
##omena
##anson
sunny
regener
assam
calcutta
excluded
lys
##bris
laurel
neal
##park
complaint
##arth
kah
##asting
##fin
alias
compuls
dhaka
wikipedia
daniels
jealous
nue
##ogram
somali
capped
dresden
##onal
manch
constituted
gb
##istence
gs
playwrights
nixon
##ibal
disadvant
batted
inval
##db
curves
guardians
suther
adjo
baha
##escu
resides
columnist
stance
##oupe
vera
anterior
burm
sculptors
gramm
unrest
insult
##aird
scrapped
retaining
effectiveness
kidnapped
glor
slavic
##85
trends
agn
williamson
cooling
kost
disturb
celebrit
paperback
weird
dab
sek
fleming
##kson
buchan
switching
hiatus
afro
##atty
antarctic
inmates
loses
pv
drinks
unconscious
marcos
plasma
nationalism
molly
conquer
550
bree
##urd
##umann
genetics
biochem
monetary
##uling
valleys
noon
orchestral
##lich
anast
destiny
inferior
motto
courtyard
natives
hire
announcer
depr
enhance
samoa
violations
##imeter
multiplayer
comparable
fright
skiers
icelandic
##usive
okin
eaten
vog
robbery
##tering
##akis
curator
charted
rapha
##bons
hof
consecrated
oro
dess
shor
worried
grip
torah
impacts
cnn
sketches
doyle
wildcats
attributes
transmitted
impair
bred
choosing
##igu
##guard
ceremonial
brooke
portrayal
mistress
posterior
overhead
lengths
doom
generic
presenters
vacuum
##ulative
abbreviated
sega
clifford
##achy
expenses
##iol
captains
bahrain
ping
hector
##jas
bullets
mayo
pueb
happening
celebrities
petty
tulsa
overwhelming
##icol
talented
voter
persecution
podium
solidarity
##derland
villagers
vener
sediment
icc
marse
airways
mare
communes
teaches
walton
aph
insuff
pile
reapp
randolph
##mac
collar
eclip
primitive
yok
sten
continuation
magnific
undertook
cope
##hp
blackburn
synthetic
mobility
twe
##obic
philanthropist
winters
vacation
russians
displaced
reversed
diane
occupy
kerr
wien
##ethe
##intosh
##islav
cesar
sacked
pathway
prolific
yong
originating
##iliation
##atore
reformation
spher
competitor
fist
golds
albeit
insight
conception
gould
cunningham
##uddin
emergence
kins
##tail
judy
sexually
##ulata
tara
##ayana
##iversity
lus
hawkins
organs
mish
jacket
kyr
##lide
##ße
elena
golfers
regained
regulated
momentum
launching
astronomer
atop
medley
hyder
mccart
inequ
regency
versa
pulse
dodge
capitals
laurence
commemorate
legitimate
##lessly
baba
masses
##abulary
##65
traders
aligned
embedded
aure
mord
##aye
commissions
biod
loaned
clips
shorts
dominion
voivodeship
beef
monopol
crom
##ulla
supermarket
romeo
stiff
genome
cheshire
hau
marvin
1775
ricardo
dl
toby
trauma
coeff
genius
bordered
sutherland
desperate
schu
hiking
somehow
resembles
medi
neighbours
sovereignty
##tec
##jm
##unders
cellular
teenagers
sok
hasan
locks
publicity
nih
trustee
compatible
woo
promises
sexuality
##onga
##former
210
antenna
camden
tl
capp
termed
systematic
tao
tup
collectors
##orts
sodium
1796
urb
landscapes
##ipei
pors
##gil
##iston
correction
panzer
microsc
bn
rath
clusters
hawaiian
screens
viktor
1700
cleaning
satisfied
230
##icides
quot
specially
rememb
##ilde
firearms
escapes
ferrari
turtle
imagination
##vey
lotus
tire
inflamm
hib
carlisle
skaters
radius
labr
laughed
brush
safely
tubercul
preacher
managerial
wolfgang
substantially
annexed
mapping
##grove
ancestor
qualities
galway
##comed
descriptions
nightclub
televised
shoots
obviously
isles
divisional
advantages
participant
vegetables
fraz
##otting
analyt
inheritance
##herty
matching
additions
synthesizer
hered
taipei
##iciary
applies
deciding
coupe
unnamed
arbitr
seated
##ups
designing
chero
dill
pras
sealed
latvian
rue
##rams
ngu
weiss
pg
##tan
pitching
mama
choices
carac
lymph
a1
##ollah
archipel
##ulton
accordingly
winged
suggestion
affecting
heather
##ende
partisan
persuaded
basilica
gunn
breathing
sophomore
harlem
shocked
evacuated
flemish
##mare
joa
privy
punct
shooters
wester
interd
hanover
##eled
##related
infect
progressed
decommissioned
132
gong
computational
crescent
smithson
peripher
chow
nil
rall
##optera
motivated
tavern
imagine
lein
diver
rajasthan
universiade
gd
crimson
pose
##umer
accepts
expend
statut
##zt
catalan
spatial
ayr
ethical
chemicals
counterpart
xia
##itone
irene
chairs
polytechnic
abel
distances
cey
amendments
patriotic
cuc
##asus
tunes
dans
kart
##combe
rely
1797
fraternity
roh
barton
azerbaijani
recommendation
##turn
##acao
piv
juliet
##children
proportional
deities
lans
wi
##esi
symbolic
##anteed
strips
adoles
nazis
zhou
##istically
howe
ipswich
##acker
scorp
guaranteed
ahl
salis
1776
##icultural
elong
precision
welcomed
donation
rodney
floods
justices
banker
rin
ratt
hanc
reagan
koz
traced
elevator
expertise
fou
np
canvas
employer
flip
parsons
marquis
preview
wears
##47
musicals
resolve
alam
karate
intersections
jamaican
caliph
##fordshire
rhetor
dexter
brewer
pioneering
pianists
hierarchy
cherokee
pah
poul
demographic
casa
determining
##isans
gao
mey
##link
debris
antig
karachi
##makers
##alach
helmet
salvation
vanderb
crambidae
##kw
une
translators
fals
contacted
oversaw
pursuing
puppet
darling
listeners
seym
revelation
kuala
##ogether
racer
reissued
stripped
chemist
##elihood
nominees
wage
juvent
differs
defeats
ery
gree
sj
sacks
austro
detained
remarks
burmese
developmental
mozart
meth
aerod
residences
evacuation
##lier
celebrating
serpent
smugg
disrupt
quietly
decent
harder
complained
asym
sonata
outlaw
smok
palat
exceptions
collo
himal
##lı
thirds
continuity
awaken
##ctica
supervisor
##abar
##spring
halfway
dante
brat
disasters
edith
##ieg
demons
eurasian
semic
steelers
##ulin
##abo
outlet
judith
precious
##alled
regg
vigil
fuk
##thon
suppress
specification
##arrass
agenda
quantity
##inqu
##oche
ornith
bots
feld
gis
terra
##otr
specialty
lengthy
timing
##etsu
chandler
dac
talked
##oken
miranda
gore
jup
crush
honduras
crosby
stoke
shaf
##onson
judiciary
censorship
vince
##на
compression
chord
cowboy
mariners
chong
warwick
horm
prat
lowered
##uver
bruins
tends
brows
gloucester
nassau
##wright
##aret
transaction
raphael
monaco
kag
pert
shipped
lichen
altogether
pays
granddaughter
threshold
regards
ventures
assassinated
catholicism
embarrass
scratch
recyc
railroads
shields
##azzo
synod
seeded
aragon
statewide
campuses
##bage
pitchers
##yards
##inen
incons
perkins
positioned
isabel
adequate
nagar
1900s
##ropical
##rem
sonic
superst
willow
trench
teresa
irrigation
drill
jules
overturn
cumb
nigel
##hama
dismant
whitt
sanctions
lemon
stevenson
loosely
##court
sponsors
christina
uy
##aise
weston
joke
accred
platoon
##mented
##obe
commercials
container
overnight
fierce
supervised
lauren
650
stained
venom
corrupt
boul
fs
favored
botanist
blamed
##ectives
consumed
##ayat
##emar
##soon
typhoon
curtain
acceptable
133
randall
feedback
migrated
sans
ads
wm
flick
encouraging
weakness
jain
bloc
expired
reactor
statutory
isabella
vanderbilt
##arina
irre
replay
baghdad
jol
pemb
wey
5000
beir
showcase
satellites
orbital
curs
hogan
##raine
pk
saddle
##ии
##iste
##oye
##idium
twil
darren
labrador
chateau
wages
##plant
##ibi
qa
tally
##apor
decomp
nonpro
##itta
demonstrations
passeriformesfamily
##pot
##with
mound
##ryn
##iffs
amph
suited
slate
##human
niz
##izable
soils
mozamb
##loaded
merge
aurora
heated
adul
defining
slender
finalists
illustration
thread
stain
werner
##49
abundant
slovenian
metacritic
nucleus
neighbors
wurtt
atari
perfectly
tendency
compliance
plenty
dmit
esk
piper
amended
##a1
observe
apartheid
rama
##rar
aluminium
puzzle
##jer
purchasing
ars
##asted
privat
##iros
barrow
##cal
chances
endow
jennings
##awan
accomplishments
alej
assuming
chevrol
chips
automated
fiber
allah
larvae
alps
nicaragua
bluff
borrowed
exempl
##kie
##raints
gentleman
feathers
unin
prefix
steele
bw
shiv
activation
accusations
dose
##itism
phi
berkshire
dealers
implies
shoe
ellip
constable
hallow
eduardo
plague
robb
##lifting
sey
irv
cycles
archipelago
flanders
abrupt
cron
russo
##agonists
aerona
peasants
eli
ting
tina
publishes
catches
##otherapy
sergio
amor
260
paired
##chich
##ulic
lucia
commuter
deliberately
macar
##enes
sandra
absolutely
##hne
mai
wheelchair
renovations
stunt
skeleton
tav
charities
injection
organizational
natalie
enlight
notorious
hess
##umont
traits
garnered
##orah
incorporate
rhythmic
kand
definitely
##imited
facto
robbie
rbi
drac
sigma
aik
umbre
mystic
dei
antio
26th
odds
stereo
chol
coy
christchurch
woody
costumes
anticipated
##frey
##idis
reinst
lennon
anxiety
pedestrian
resistant
niagara
hardly
android
payne
##lop
##oub
undefe
peasant
shake
socialism
redesignated
##ontinental
##isal
##ogues
stupid
schneider
downstream
freel
excluding
hain
modification
survives
enslav
lsu
scouting
aleksand
gamma
coss
horace
wir
##arro
##forth
sands
1780
wurttemberg
smell
suzuki
slim
violet
sensit
yen
dried
prayers
trac
kits
##opath
sophia
ero
laying
imagery
diaspora
phenomena
phrases
braun
grind
homest
metric
linebacker
tusc
ub
envelop
warbler
attained
surveys
avon
##stones
seals
aging
brotherhood
gibral
undefeated
fart
eighteenth
mcgill
pilgrimage
assessed
coined
##ucc
avoiding
naj
##rab
weig
speculation
bosnian
tiles
outcomes
goose
francisc
##unga
kaiser
ingredients
sb
gob
holden
dramas
##anka
kass
tricks
email
uran
camping
scarlet
exposition
##isen
append
dinosaur
meadows
jade
cake
kant
latt
decisive
##odus
excited
falk
clube
realistic
contractor
1910s
cag
psychiatric
oj
siv
blades
frigate
unaware
farewell
rebranded
##glomer
##mount
##otam
redevelopment
mitt
motorsports
choral
bias
savannah
sinking
paternal
gibraltar
genoa
amn
constantine
skysc
ia
algorithms
salisbury
conway
selective
db
blame
infilt
frequencies
periodical
renault
smithsonian
seymour
xen
quantities
##houses
framed
##horse
partnerships
##oran
clown
miniature
1200
fixtures
dwight
chau
minorities
substances
wholes
spit
administrators
chil
coaster
##loe
breach
fulfill
gloucestershire
uncommon
##reciation
##jana
##keeping
submit
##manship
crocod
promotions
ambitious
bolt
celest
instantly
nowhere
bangal
##ır
##yss
chill
ensuring
compromise
demise
agr
anymore
paula
tosh
counting
hai
nursery
lahore
foul
workforce
everywhere
rabb
##hawk
##orno
kru
131
##asu
##raz
outsk
paolo
synth
busch
##fields
ducks
volcanoes
theologian
emm
1791
slaughter
courthouse
##kas
reilly
spears
##atisf
xii
tres
mali
spray
hancock
skyscrap
tenants
lowe
aliens
universidad
fortified
renewable
overd
bests
##ype
##jon
eponymous
stealing
reperto
tes
##ecute
angus
seniors
conceptual
factions
throws
wendy
keel
##conn
talbot
dive
ancestral
dukes
hyderabad
kri
##sbury
competes
##ijuana
##omys
##ikos
null
pamph
pug
rach
##enches
eyed
pupil
##iaa
interfer
passive
gluc
soy
kall
m2
##ayev
dn
reply
sights
##itian
eras
astros
##omic
schooling
##ahaw
balloon
esper
oceania
antarctica
disciplines
academia
##osity
lafay
twilight
##cles
turf
cultivated
oman
##ipes
generator
clifton
##stairs
cone
soup
##thal
atoms
wwf
##uti
emerson
adel
duplic
memorable
##oza
confisc
domains
node
##gars
##acs
##afe
zimmer
##yth
##now
greenwich
tumor
jacqu
baku
fencing
crossover
panor
owens
##rez
intro
europeans
##ilib
parachute
spanning
picking
triangular
ensuing
lafayette
wouldnt
garrett
broadcasters
cob
chevrolet
##gia
rituals
duss
iter
anita
barg
renewal
cosmic
tuberculosis
stephens
targeting
##ourier
##ungen
intentions
pell
serbs
oph
squir
cair
##ioni
outskirts
gerry
flexible
niece
##flow
discl
##hyn
sharma
collectively
biodiversity
barbados
trafficking
darker
##hai
##ер
tempo
discoveries
centennial
deposit
cartoons
bans
perspectives
garde
jakarta
andres
bowls
vang
xu
biot
27th
reviewing
toul
luna
goa
emphasized
basal
##raph
lester
gug
rivera
##kill
satan
fortun
borneo
browne
thess
uruguayan
bubble
##athetic
cane
repet
communism
greenwood
nhs
shores
laughing
mughal
##otus
treatments
##otypic
tz
##green
##eras
hubert
extinction
greeks
lizard
##jet
histories
nell
chit
apache
delays
##appy
##yang
##tles
alison
seventy
confess
shipw
addressing
brune
ineff
odys
tsun
merchand
caucasus
matric
tt
scal
uzbekistan
ismail
venetian
vip
outline
harb
jed
receivers
stared
suspects
hermit
lime
scripts
##gill
restruct
weakened
panther
stirling
disposal
##icola
1783
groove
resorts
australians
silv
interred
haunted
pn
tapes
receptors
airplane
airplay
functioning
namibia
hanna
tips
##cery
realizing
sonny
attorneys
elliot
bracket
imam
swansea
mathematicians
##ogie
poetic
##68
juniors
kimber
gilles
derivative
unrelated
bisc
hurricanes
maus
vintage
pietro
commentators
olivia
essence
repertoire
##shaw
##aland
corinth
speeches
ffbb
polls
seaf
eul
hamlets
vein
tsar
genuine
denotes
gravel
redskins
employers
fang
##oway
affection
petro
leinster
labeled
##eut
##zman
##ologic
silicon
##ushed
debts
##arios
muscles
##isticated
##agher
una
krakow
pomer
##iatric
ernie
konst
##olome
mormon
bump
##emn
##adio
indef
sioux
zah
cancellation
moody
alcoh
gavin
##jevo
##onts
grat
destruct
kirby
aluminum
zip
specializing
jupiter
dynamo
artery
finch
ryu
riz
##akar
49ers
correctly
disappearance
cypri
memorials
bhut
bugs
subjected
acquiring
bmw
##rise
##tel
appl
##garh
##idia
comparing
##yna
homosexuality
okinawa
##cus
skyl
accomplish
rogue
byrne
declining
1870s
28th
apprentice
pharmacy
##quel
flyers
gaut
kb
ramb
whistle
filmmakers
leak
talents
introduces
messenger
##iq
hash
mercer
ais
enables
hue
##oum
forts
underway
apt
##79
143
iconic
remod
implications
nonprofit
##onium
forens
contempl
##urgical
matched
transcription
rutgers
##rays
purely
##vik
regret
jod
void
fidel
##ibo
##enthal
staircase
gru
pau
enz
praising
quran
residency
bangladeshi
ether
##ilyn
##rode
unionist
hoy
detached
jonas
katie
##wicks
expressing
1788
rigid
##rating
##inness
diplomats
nichol
aval
melissa
gentlemen
conclus
##fm
birch
readily
sensor
nazar
scenario
rai
##wo
pius
thief
combines
lincolnshire
biden
##leep
practicing
akh
##ologue
##ongo
fowler
##ser
##eche
amir
##thor
exploitation
damp
##adan
kro
benny
lounge
mortar
penc
##card
reduces
extensions
liability
##terdam
transferring
conflu
arches
wrec
captive
packaging
molecule
calcium
remaster
intersects
spells
discount
donovan
declaring
discusses
##agin
spun
loth
marxist
wilmington
mammal
cretaceous
balanced
victorious
##plus
inflation
tempt
rented
grig
upstream
flooded
jays
280
##long
madh
blocking
bhag
mow
drought
fortifications
tand
225
porsche
##eric
shog
assim
bangalore
burlington
lottery
##umbered
playground
diabet
incorporates
exiled
reclaim
whats
oaks
merry
##acies
numbering
johannesburg
##rob
repaired
hedge
ile
butcher
ust
captained
scrub
refusing
precursor
zab
##bill
stretched
nets
##uld
plaster
martyrs
##rosc
thal
goalscor
behavioral
saunders
archibald
brewers
dioxide
circuits
bags
dwelling
homestead
nish
isot
announcing
vowels
incent
spectacular
acquisitions
sanctioned
amphibious
reconstructed
##asim
##ikk
ceylon
ghosts
152
rite
posting
sylvia
lich
edmond
liberals
announces
bacon
##vs
neoc
guilt
dai
sams
##inished
##tham
micha
incarnation
endurance
mls
logical
pact
fry
maw
germanic
hostage
firefight
negotiated
##olla
shouted
dillon
kj
slogan
raion
hawth
mutations
delivering
insufficient
##dh
tipper
sparrow
ordn
reissue
lawson
hoffman
##umbled
##wu
duel
financed
darts
liang
clans
alarm
relied
petrol
boulder
nguyen
diab
ivy
trol
derry
alternatively
processor
aspir
engineered
ome
corb
wilts
cannab
earthquakes
##hat
spinning
beirut
##itya
infections
nitrogen
ville
upt
klaus
ged
catcher
##inty
soundtracks
hercules
##osphere
remixes
peerage
brake
barth
twisted
olivier
jans
tant
styled
erosion
fulton
mccartney
lom
##irmed
stadiums
conversations
kip
##lew
elias
phones
realism
teph
##fta
encompasses
rejoined
esther
belize
coordinate
rebuild
appointments
xiii
gibbs
nys
##isely
confined
km²
seaw
maneuver
reproductive
ghanaian
##boats
takeover
unlock
deacon
arise
els
punches
worthy
lacks
upp
##nius
1860s
premise
ashton
staffordshire
explores
robots
##opo
debates
wilkinson
profound
financially
besie
kathleen
magistrate
vaughan
teddy
##alle
goalt
habsburg
prolong
confrontation
##jun
thumb
##adequ
unlimited
bez
neural
##orte
beloved
##eee
greenland
bran
patents
umbrella
thirteenth
unfinished
mitch
##iscip
reluctant
damn
kyoto
clive
swind
mcgu
##pie
buch
##ahar
brutal
##agger
transcript
bucks
fitting
incredible
offerings
##oulos
apparatus
lagos
igor
nach
thoroughbred
##nor
##org
##rae
hulk
confronted
xiao
seiz
technically
sophisticated
reyes
fundraising
inadequ
arabs
retreated
shifting
hague
boo
meditation
##bek
harassment
eclipse
mortgage
buccane
overc
inev
audit
nikolai
fresco
surroundings
jp
##aren
sunderland
trich
compart
grate
spokesperson
receptions
cease
vishn
mosaic
lorraine
##ulo
##obia
jensen
##fil
##etal
##iku
crystall
amenities
adjoining
sew
guam
jong
##42
resting
##ornis
etat
reorganized
noir
charm
verdict
ego
palermo
##wings
##ocyt
telenov
admiralty
referenced
observers
##ailing
knees
mansfield
occurrence
subsid
tiss
##bles
chatham
fy
tense
colt
submer
equilib
irvine
141
chaplain
investigative
dramatists
pots
##urgy
##oton
myc
samb
successes
##ento
stole
##ulam
roch
confession
overlooking
winger
##wickshire
corresponds
caucus
yesh
##fax
enric
assisting
pleaded
ada
reminiscent
limerick
sheridan
nikola
kt
lough
mgm
rotterdam
electrom
laos
dorset
vu
arrows
storms
stripes
##patrick
##angi
asserted
physiology
productive
cousins
##78
##esque
mortality
gifted
nud
popul
1787
##ор
zambia
northampton
##thia
click
livingston
joao
offspring
pulitzer
prone
bram
everett
pipes
clap
roe
malik
suspicious
##psons
broadly
270
branding
leonardo
pools
rebuilding
routledge
bordeaux
havana
aden
whereby
bowler
ener
halted
tonnes
concentrations
newslet
subordinate
summoned
kemp
##trak
presumed
communal
normandy
cds
lava
crowds
faust
deadline
charlton
ours
##roads
savoy
##brough
treating
conductors
catalyst
multimedia
##cements
villains
projection
homage
macau
suspicion
progression
scream
transitional
##onge
diabetes
appalach
legitim
beginnings
##qua
prese
142
hk
pleased
compulsory
tern
ruined
caution
##atile
euph
regain
peterborough
wille
##illi
peel
##chaft
vod
##aci
wholly
menu
patr
##rc
dominance
commenc
attitudes
butterflies
sich
##rack
expressions
sundays
##uko
affects
kp
##shima
storyt
occupies
prominently
kopp
##oel
alike
advers
demonstrating
overha
discourse
##uns
euros
implied
appreciation
2d
iq
tm
##gos
##isie
##ometric
velvet
##isman
##ronts
veronica
clair
##burger
ruin
investigators
##ingual
britann
goodman
immers
singaporean
coul
tha
shame
packed
##ensed
hereditary
luz
huff
concludes
dartmouth
examine
revenues
dinosaurs
##ossa
tung
blend
thornton
hoch
concurrent
disappointed
cary
##pen
##opotam
commencement
pis
##estan
concentrate
##loid
giles
##athed
granting
nicola
dull
miscell
marseille
colloqu
ordnance
reside
canadians
biom
brennan
preseason
ench
legislators
complexes
wich
##jing
onset
daisy
wolfe
mae
structured
rendering
##72
##oise
heidel
islanders
bfb
cubic
##odont
barriers
sounded
ffbbbb
##uo
discharged
tended
killers
squares
granada
rappers
attain
sims
obsol
mono
matth
investor
peck
##kop
airs
dimit
nineteen
anand
gwyn
##icious
1784
reinforcements
hapl
##rika
rotating
mister
cardiac
alvarez
hicks
stig
spans
nominal
baxter
kish
##acha
bahn
privileges
unpre
##osta
intimate
schwart
##ulator
schen
harriet
labs
dramatically
scan
vols
qualifications
mandarin
expeditions
##imal
reprise
psyched
##phe
##function
blackpool
##gyz
sindh
advertisements
vad
strath
makeup
oxide
kis
mard
constellation
foll
yog
205
nils
##hening
##aras
upright
somebody
kung
##ucn
dit
##rud
rumors
apprentices
hilton
detainees
pants
pending
polym
petrov
neon
cannes
##boo
excavated
medina
heavier
eager
coordinated
hq
marilyn
subdivided
triggered
reggae
turnp
subscription
##omatic
##ikon
definitions
warn
mait
andalus
inserted
documentaries
confirmation
enslaved
shay
priory
##shot
##ippers
subdist
barns
treason
sammy
discovering
bere
patrons
nug
stamps
resume
chie
directorial
limb
chamberlain
simpsons
positively
suits
brend
occupying
cola
realised
##69
hesse
jiang
vilnius
dt
tod
surreal
protoc
320
ethnicity
pou
vhs
##dington
abe
passages
prak
batch
schwarz
jamm
depiction
viad
emerge
##uxe
##even
juice
buchanan
pinn
asleep
hindus
wicked
ceramic
fraction
possessions
##ар
spont
frankie
yester
predecessors
psychologist
##asco
loft
interval
procure
nand
##quit
unusually
baz
feng
breton
huntington
resurrection
##acan
verbs
corpse
regin
dictators
uv
restart
mens
intrig
##endorf
weekends
verbal
markings
namesake
stade
chitt
whist
##adox
cale
inclus
cyan
counterparts
lionel
samurai
exports
restr
confluence
pits
facial
notation
entom
tablet
##emouth
gaul
litre
tipperary
thi
blown
collaborations
##ihad
patronage
##rine
naut
##retto
middleweight
declare
nile
##pack
broker
antiquity
stella
outright
accompany
##quest
mirza
criter
baptism
kyrgyz
##agus
flats
##uters
scher
alejandro
##ен
##elage
##itha
protested
identifies
##ellus
testified
shipbuilding
taxation
rae
outre
schul
alba
recovering
therm
##lance
##esville
utilizing
geometric
korn
v8
queer
cyril
luigi
bleeding
skater
grandchildren
##hiro
##adays
brag
eject
ordering
##araja
treatise
adjusted
oscill
crem
promotes
cinematography
##inho
aman
##osus
c2
martins
stras
plantations
mozambique
heats
dusseld
camel
nutri
nowadays
exciting
##ivorous
becker
wouldn
selections
tx
##rt
strap
defl
visa
nok
letting
indefin
kron
attested
ammon
solving
outfit
##aney
guadal
151
luft
registry
sustainability
ruther
adverse
flot
superb
kidnapping
negotiate
##attering
yid
viewer
##lund
##path
ston
chairperson
##quis
pett
##rust
berger
##iguous
admit
respir
kud
##asso
exotic
sup
blonde
bremen
##plays
excit
turbine
jeanne
##ynt
representations
ruff
extraction
##haven
creators
killings
ccc
charging
surgeons
javier
graf
aly
ccff
sock
porch
chargers
voj
librarian
sheila
candidacy
emblem
halloween
io
1774
catalonia
forrest
satirical
paso
golfer
prisons
ccffcc
sleeve
rabbis
1778
liam
##oscop
precisely
spokesman
##leod
grouped
cody
153
mccoy
##omial
caret
padres
fuji
lumpur
850
##lake
individually
phel
unse
violated
rubin
abundance
imprint
archie
deluxe
shine
##onyms
anz
goat
perennial
##ieres
citadel
plaint
##anj
##eting
quin
richie
pillars
nate
paradox
oilers
assignments
fourteenth
ieee
##ellular
muss
ankle
erit
accounted
##ieder
jurassic
epithet
grun
##evich
zem
##due
##week
quinc
experiencing
uh
sufficiently
##hrer
morphology
thie
spoon
##ayo
catching
specials
saras
vicente
##riz
sake
sulfur
brab
refuse
retains
1777
##vre
argu
anarchist
lass
comet
##apo
##arded
ministries
honorable
possesses
alvin
domingo
##kk
greco
curry
everton
mered
gently
nie
locate
limiting
expeditionary
electorate
llan
addiction
viceroy
covenant
muc
undergoing
akadem
therapeut
northumberland
racec
honoured
washed
blanc
norse
nippon
asi
##emaker
beacon
defenses
botswana
##ikawa
baritone
##iona
procession
converts
kenyan
1785
##bral
##alu
entirety
amin
accidental
accreditation
fior
schwe
feeds
##mitt
##aghan
landforms
similarity
instrumentation
nichols
cumm
prosperity
burk
deton
bum
puff
rb
##isphere
haf
##armed
disciples
numerical
jewelry
tudor
insignia
plc
##tw
##chenko
nathaniel
chis
fleeing
uranium
cardi
reliability
maver
belly
judged
clearance
defendant
recruits
metallic
aren
corporal
inscribed
##jack
graff
dahl
##olls
pedag
eco
aba
interpretations
enclos
residing
usl
uncertainty
##vd
brewing
pseudo
ranc
centro
trombone
bite
##opia
rupert
hobart
##wear
faint
ruiz
alexis
carth
reasoning
pressing
saxophon
tragic
sensors
recruitment
joaquin
##storm
deform
attachment
moran
excavation
cess
bloss
sixteenth
illusion
congest
warwickshire
elders
pog
apex
rift
metam
vacancy
vitt
##estown
alban
shelley
tattoo
sainte
tilt
wad
economists
lagoon
zy
##icana
commandant
metap
##bahn
daddy
fringe
##ukh
lening
##gau
andes
interception
colling
primetime
feudal
tajik
##akan
confuc
bilingual
strikeouts
wigan
##chet
gasoline
hydraulic
yoga
##elines
##ecd
concluding
motifs
curious
strengthened
refr
steals
##ophyll
tolerance
prejud
tractor
irwin
lowell
nyc
##89
olig
constraints
##ismo
norris
##erne
##iland
nobles
heidelberg
##achim
communion
evelyn
occupational
lifelong
mckin
racist
aks
##emont
ella
obsolete
dah
polling
fined
sunni
domes
slug
hymns
nis
##chin
##chool
fredd
worcestershire
migrants
##retion
axe
prestige
deutsch
refusal
##irable
weekday
cornish
daytona
andr
##endale
agar
presently
pawn
olga
330
mohan
needle
pulp
updates
interceptions
##kaido
traum
moldova
glanced
humorous
##owo
modeled
cliffs
prostitution
heroic
cocon
zhao
zinc
plots
allocation
wl
explorers
pest
dispar
slab
1660
40th
birthplace
shelf
punjabi
erin
##entin
einstein
a3
##irez
##ounded
frogs
reigning
endowment
magnificent
turnpike
pork
##gence
##jak
viaduct
meredith
rink
graveyard
##acaf
shit
##etsk
visions
amalgamated
##onds
brunei
rails
reviewers
reno
##iyah
cordoba
fert
glasses
innocence
concacaf
osborne
##atl
##isson
equestrian
##chichte
rf
meals
depths
admits
utrecht
sergei
wiltshire
tucson
dispatched
dickinson
##tas
periodic
nf
##wr
##itsch
arranger
tyne
rover
aquarium
immortal
hens
##ayama
berk
kramer
1850s
rale
##arine
differently
pba
##ogenesis
dwellings
dread
tuck
albu
translates
checked
##amura
stays
monograph
springer
obligations
##bling
pony
staging
##adri
##iffer
420
##wat
##omans
retract
julio
mlas
##agawa
clashes
vaud
##odor
antisem
calab
recapt
cadets
nodes
##ags
teens
##izu
secretariat
kilk
firmly
troubled
metaph
fielding
mutant
shankar
hust
printer
##see
##gaard
doris
lust
##oit
##eong
beech
geelong
##agnetic
liquor
abnormal
codex
##changed
instituted
100th
hazel
traction
lament
elig
##iera
rwanda
herz
transp
venge
##bath
worm
1758
surpassed
juventus
##listed
dismissal
recognizes
routing
wondered
steadily
posed
inactive
baseman
definitive
colise
##rite
poz
welles
guerrilla
##enb
laksh
zombie
utter
##achal
erich
triv
marino
eisenh
yad
##yder
contamin
tracked
vom
tyrone
##imov
ssr
enzym
##eous
shifts
replica
torque
identities
stronghold
dolls
kild
##losure
bau
averaging
erotic
##aty
inability
pigs
##sl
aft
distress
madness
hunts
tallinn
proclamation
##aston
##ahon
monastic
screenplays
dressing
annot
deficit
##isexual
blessing
##verse
##eteries
31st
sacrific
devotion
keller
monotypic
discs
giac
preserving
##76
incoming
veterinary
pamela
backward
bavarian
cocaine
##anov
murderer
1770
employs
wavel
ios
processed
dignity
##ementioned
501
cemeteries
##wagen
radial
readings
proposition
leningrad
hep
unsp
afor
ridic
goalkeepers
ramirez
zhong
hussein
auf
eighty
parag
metz
danube
scarborough
hemisphere
megan
qualifiers
invalid
infectious
##edes
mcdon
lyons
signaling
coffin
##cd
parma
shotgun
papa
relates
barons
29th
dap
xvi
mountainous
chandra
sarajevo
facult
armenians
tephrit
kamen
crushed
aal
compare
bentley
dusseldorf
sco
##eyn
deborah
ugly
yer
yin
majors
##aan
##oids
##iks
shortage
markers
faber
neville
##oreg
tutor
##querque
sensitivity
notices
armament
bella
solitary
capitalism
splend
1786
necessity
samar
engel
prompting
laureate
chimney
bung
surin
litigation
##km
slower
holm
concurrently
slalom
pizza
cooke
nicholson
tops
gonna
buccaneers
mok
##vy
submerged
lakers
##giving
petit
implementing
spiral
##anova
slipped
militant
wont
informs
##iye
##omac
##lywood
quotes
sumatra
##yla
shareholders
pronunciation
##ikov
1782
equilibrium
elaine
##iewicz
deny
botany
##uating
playable
induction
statesman
chestnut
pash
wp
sejm
lept
backwards
investigator
##etric
ala
gud
##brates
##writer
docks
dau
canary
melt
combust
flynn
hungry
zeit
aide
organist
postgraduate
bd
subsidiaries
herd
blur
ascent
grossing
bai
##econom
finances
exchanges
overthrow
##emer
##echt
gaze
crusade
ants
shack
pauline
foley
rental
habits
sevente
##edin
##ayas
nightmare
contingent
newc
justified
bamboo
eaton
tess
wess
##oller
##hetics
mesh
mustang
brandenburg
exodus
1750
damasc
backgrounds
konstant
seventeenth
wt
infamous
nuns
spine
balkan
shirts
deposited
manifesto
denominations
schwartz
##kowski
assured
mathew
westward
devastated
exits
bacterial
conferred
amnesty
gond
##adas
sous
myths
##ichen
sperm
fresno
aforementioned
##icher
##ocar
elk
basically
##ighton
furious
symmetry
oste
arv
##raj
constructing
##adores
lax
balk
mutation
dalton
carpet
prevalent
##chann
comr
interrupt
tidal
ال
centenary
refres
babies
marathi
boiler
frustrated
collingwood
leap
socially
monumental
retailers
cote
stanton
##ancies
reginald
freddie
##olation
stocks
erz
rodgers
syndicate
damaging
##isciplinary
soviets
sylv
80s
rund
##isto
##ushi
h2
pneumonia
ambush
##ulent
##bride
tombs
beans
giro
##lal
seller
guyana
mla
##appropri
promoter
naturalist
temporal
newsletter
simone
critique
lifes
archaeologists
##ан
troupe
squads
rosario
observing
subscrib
diocesan
giul
uber
originates
wrist
bbff
parv
parc
musket
##iasm
1781
exceeded
feas
tottenham
bala
##echnology
allegiance
gom
lea
sunlight
strauss
pach
burger
bbffbb
##oes
uncovered
anchored
kow
pts
xiv
##icles
macarthur
yaz
alz
networking
spill
advertisement
aero
oll
energ
boycott
fixture
violinist
ked
conditioning
mould
lesson
cartridge
hiring
kou
mx
##gm
kicking
alternating
quincy
eruption
##lander
reflex
karls
commemorative
hubbard
lifting
telem
probable
motivation
comprise
workplace
perimeter
regimental
exchanged
etern
seine
##avez
lars
suppression
matilda
malls
##aldi
watkins
bureauc
sip
choke
befri
moose
sells
pept
daylight
suppose
turnout
substituted
bain
michele
omega
divinity
barre
raff
##mis
##girl
dare
kf
##cut
practically
pivot
nolan
jang
##gett
shun
amos
issuing
troph
caud
mandal
yankee
chloride
breeds
dolphin
cine
##entions
##undo
reflections
lyrical
twenty20
forensic
enrique
suscept
aristot
tramway
hertfordshire
##qa
muz
mayoral
978
pronoun
##iton
##usz
mirrors
devised
##sta
##owe
schiz
##isting
presided
nora
##class
wors
protocols
##idas
##chio
sunrise
##atiya
sass
##try
##olini
gallagher
accelerated
proton
##enden
colombo
regulate
honol
##anthus
analyses
alain
##vex
arrests
drummond
converting
##heny
bios
emanuel
zan
borne
darlington
ceramics
instinct
matte
seng
##wang
castell
rfc
raleigh
fiance
tunisian
ordinance
cannabis
woll
melodies
trolley
bauer
##uil
##enton
roz
flycat
##gone
seahaw
playhouse
barney
inauguration
nair
instagram
directive
trusted
edo
lamar
brakes
##undy
escaping
accumulated
toulouse
albuquerque
90s
cj
reelection
blooming
peggy
beaumont
respiratory
##fig
infinity
dich
yv
##heon
offences
jammu
cobra
cet
##sal
speculated
tails
burgess
premature
honolulu
bland
fia
yesterday
resembling
epidemic
tj
northbound
barred
swallow
wemb
zag
fein
yiddish
##elas
alexandre
##lau
##hea
##enk
salle
##ajo
mosques
bisexual
lethal
##bott
glaz
picnic
beneficial
sino
##waters
t20
oceans
eliminating
anj
##cera
lach
scha
teatro
figur
lumin
deuter
entrants
heirs
gow
##rail
parap
grateful
ghett
shower
southbound
sentin
brasile
permits
gour
##oos
ida
cain
lur
unification
crude
##parents
alcoholic
cuck
##etes
meantime
bunny
invasive
amtrak
bonnie
hisp
vega
solicitor
jae
dissent
pigeon
globally
dae
intimid
substrate
miscellaneous
offence
recorder
ethel
pillar
boll
##fur
##fle
##illion
applicable
clever
qi
##bee
##ophor
methodology
odi
motorcycles
inadequate
flaming
##atorium
turret
relocation
teng
##mant
conan
infrared
explosives
judgement
eust
gdp
waist
deutsc
##about
castillo
mori
departing
blockade
microbi
whispered
##43
exported
rother
raul
daven
xl
underworld
370
unnecess
bunch
##thorpe
##elope
amelia
revis
minded
##ол
privilege
concession
##pace
##aroo
##omat
calib
deleted
suppressed
musik
discour
##hani
acquitted
mendoza
eisenhower
belmont
wrestle
firearm
hatred
##leading
myspace
commenting
yokohama
##qui
##vester
gaa
##croft
##ungs
aztec
vain
claw
announcers
tissues
coliseum
##arum
grape
farn
deportivo
##cephalus
secretaries
questioning
sidd
thickness
##top
tek
examinations
bourn
##idon
scler
sparked
hairy
wharf
irrit
failures
brendan
lact
boone
talmud
etienne
eccentric
orchard
##loch
constr
reverted
##iflor
sympathetic
cfl
##author
archaeologist
wakefield
£2
borg
rejection
osh
##orna
##ikan
skinner
giorgio
seism
centred
schult
emission
vij
paddy
innovations
eminent
monopoly
annals
galicia
comply
outfielder
wetlands
tp
internally
oversight
mistakes
tiff
lego
##hoe
##emason
##ithm
subtle
hui
precinct
farther
##41
dissem
expresses
unanimously
pascal
caut
economically
bliss
sob
persia
piers
splitting
planetary
unchanged
provost
turtles
colonists
##schule
climax
cannons
275
scrut
##gradation
nana
##odied
grange
popularly
##aille
famine
snyder
captivity
antony
##raged
timor
combinations
outreach
sandwich
bohemian
daly
stressed
heil
impe
exhausted
airst
oldham
nog
opus
absorption
poisoning
guth
mott
intervals
cruisers
wagons
vet
##hills
turkmen
nrl
##ijk
##eers
baton
vaccination
sparks
enthusiasm
paleont
brittany
eligibility
ditch
garland
gaza
##ozo
purport
baja
desmond
stranded
##eger
chavez
cinder
intake
incar
odyssey
##endi
cypriot
rossi
diplomacy
sina
interpre
foreigners
hokkaido
flatt
##liner
campaigned
£5
aiming
subdivisions
bourbon
distributor
razor
aces
zig
215
##gt
moe
hotsp
purdue
defendants
blew
beams
itunes
saur
saul
pais
diagram
rites
##itat
sportsc
##mart
viruses
willy
bingham
vc
elf
hitter
##boldt
ions
fins
liberia
wesleyan
merchandise
harding
nuts
enforce
##words
rockies
medication
##anza
jumps
##eres
deeds
1779
examining
fah
scared
midst
toni
solved
mccorm
unite
academies
posthumous
##apuram
##nas
probe
##ipa
contests
morales
wolverhampton
retrieve
cind
##jah
##inck
flavor
zoe
truss
chet
courtney
exclusion
buckley
cymru
f1
harmonica
##dong
stokes
nept
##flower
perpetr
derivatives
middleton
##game
##ersen
immunity
nissan
inequality
riga
##eye
potato
immigrated
##lot
northward
revue
##idine
shang
kappa
novi
glacial
intercepted
meta
donor
crystals
theodor
wembley
cue
206
possibilities
persistent
hypn
semiconduct
weighed
##mot
carrie
swear
reconciliation
transparent
indication
ajax
damascus
wta
considerations
contributors
optimal
##acea
sof
biographer
dissol
otago
stratford
pueblo
edison
bash
toilet
##order
freelance
##cip
utilities
##adle
arid
restriction
##rama
##ochond
doses
##law
##ibu
africans
recognizing
##hua
ate
##mania
impacted
kris
ull
bricks
##evic
##berto
crying
lombardy
crossings
grief
psychedelic
##igne
incur
nude
##igny
ideals
briggs
cinemas
oppose
sounding
peacock
institut
bathroom
bohemia
##ruz
##look
theologians
forster
builders
narc
renee
wines
banjo
franchises
peculi
##nica
oracle
donnell
sabot
bottles
margins
##awak
incarcer
##opoulos
ching
beeth
maximilian
##yal
##etically
haul
ambient
##zzy
mentally
##hesis
unstable
##eus
seap
brow
cube
lyricist
consultation
##omorphic
seahawks
##leaf
volta
obscure
kilkenny
stepping
confronts
shootout
upgrades
veto
shing
diagnostic
nests
usd
wichita
##usions
sears
vald
exploded
watches
degener
##ilon
##olent
coastline
nure
humboldt
royalty
##ayam
##estro
blink
idi
proposes
grocery
hiroshima
linnaeus
rij
akin
surveyed
float
##ynamic
norte
infring
launches
hobby
apr
militants
ramos
henrik
cdp
guan
##sev
ravi
rhetoric
bount
rok
inductees
dend
bly
nons
##itud
specialists
suns
compilations
fiat
travelers
gymnasts
uae
disappointment
yuri
behaviors
warden
hatt
ministerial
stretching
affordable
robbins
nett
tires
boyle
separating
kamal
bahamas
elegant
##wil
prescribed
boc
##bil
##note
##atal
disg
historia
ottomans
crimean
##etown
ponds
embrace
2025
nal
rewrit
##aval
##fton
litter
portraying
claudia
dictatorship
posters
freak
drowned
nocturn
##stick
stard
sticks
##assa
mornings
unhappy
currents
pedal
temperate
welch
##ook
##orp
##elis
simplified
##bras
physicists
algae
iucn
hadnt
gertr
foli
hats
##hang
##text
warming
assyrian
caretaker
resemblance
risen
hover
famed
prolifer
ponte
schles
slowed
creativity
parameter
reorganization
vish
##yas
artem
wiley
linguist
kale
drago
##bruck
banana
sympos
andersen
disciplinary
##59
catast
khz
kib
farmland
welter
tn
tatar
flux
presley
torre
410
marquess
compress
wex
antenn
benton
erupt
kinet
##icho
##ologie
neurons
bowen
joachim
fifteenth
eut
tones
samantha
masked
beethoven
nationale
castile
wond
alec
characterised
mole
##buch
##actory
hydroelectric
##ometry
babylon
satisfy
profitable
kurds
caliber
runoff
handsome
siem
playback
##maid
vocabulary
screaming
attracting
##pherson
tying
prost
##allo
universite
opener
bollywood
pontif
sins
eddy
boz
boer
161
evergreen
##closed
stretches
ramsey
laurie
disappointing
wab
alloy
accurately
rains
flores
escorted
amiga
ler
chh
logging
vacated
##ihu
reciproc
##undi
##trans
##henko
commando
##ushima
##zone
adorn
##lp
malaya
adject
quaker
suzanne
geo
pressures
vegetable
truman
transplant
lois
signatures
kendall
antagonist
oswald
vivian
paterson
cooked
##ulas
senses
montenegr
obo
wd
rosem
promptly
palae
arun
terrorists
reservoirs
segregation
pim
##abel
##uges
royce
searched
ett
##leys
anaheim
gett
guiding
statutes
doesnt
biographies
cites
beatrice
hodg
enlighten
entertaining
##vir
sheer
##headed
liaison
ode
strengthening
strangers
blond
futur
cartoonist
napoleonic
unpreced
joc
atkinson
##uben
encirc
mba
##pet
##ushu
mav
tyn
touching
caldwell
vishnu
mersey
##67
crete
masks
displaying
fishermen
fairfield
##was
##thi
##inde
trader
tremend
sway
affirm
townsend
tortured
deported
wies
##identified
raft
##afi
dop
sharply
leaning
cinematographer
haitian
##uins
deskt
incumbents
##gem
modules
insane
miriam
unprecedented
relics
encry
##rophic
outlined
employing
##ayn
##ianus
percept
viable
##elves
##icker
undisclosed
##hydr
functionality
brasil
sauce
attribution
propulsion
modernist
eup
relaun
textbook
##igl
waived
mysteries
wand
##uen
seize
lara
api
libretto
##media
lovely
shining
##tsky
farrell
hutchinson
##thel
archiv
eastward
##igue
prelude
guinness
invitational
propelled
humphrey
##yam
forge
gallant
alternatives
leopard
siberia
colonization
arbitrary
organism
restoring
subcomm
chromosome
crimea
shelters
lviv
dracula
distribute
256
oster
mechanic
creed
arbitration
cah
##illary
waterford
woodlands
kicks
lm
##wolf
stout
##herst
proving
crusaders
nottinghamshire
##elet
hezb
degradation
gide
histoire
ao
##bet
unused
parole
texture
metaphor
dib
neoclass
feminism
hinduism
dispersed
khy
tf
subgroup
skirm
375
hairs
##hc
hamm
principality
fertile
woodward
blunt
italics
##zzle
shrewsbury
##aft
cinematic
toes
reint
convex
setup
policeman
liege
smiling
bother
wren
##doc
##wid
moreno
wilkes
ignor
ginger
unav
tenant
unfair
kapoor
kauf
subscribers
##kaya
upheld
##rification
davenport
demonstrates
maltese
##ischer
electrons
pedest
sultanate
khark
yeh
a2
merrill
grossed
excitement
##px
gregg
relate
zheng
righteous
pathways
pontifical
gif
vt
gala
daim
appreciated
ransom
inex
##icum
handicap
##asta
dunedin
mauritius
awk
felipe
##nagar
schon
##kha
##icle
romero
advertised
mesopotam
sos
booker
gotten
kitty
headmaster
descending
horton
##urp
connell
gradual
surprisingly
rau
1773
yach
olympia
vivid
congr
##ashing
woodp
rutherford
benev
adopting
##ogroup
wai
##phones
kensington
##oug
bois
##rogate
hears
compton
burgh
buffer
burnett
volunteered
merging
gers
dividing
coptic
productivity
scholarships
seld
ante
##ogh
satisfaction
contemporaries
##wave
mortal
aq
kats
jokes
##omus
virgil
##uela
atlantis
hudders
gastrop
sweat
bucket
prolonged
##nu
bernie
penguins
huddersfield
warships
##arra
marrying
wally
onward
filing
mackay
##arthen
appalachian
##oct
expecting
textil
chiefly
hearings
vanguard
##mberg
amherst
##loads
canals
admired
##uffle
hanged
rodrigo
fda
blitz
doo
##omba
##ου
avery
folding
kabul
staple
subcommitte
faz
##gp
spani
shaking
##angan
outpost
jaime
##eau
libertarian
unexpectedly
appell
##teacher
npr
elbow
congregations
bantam
accessories
dixie
mf
commend
assumes
hohen
omitted
choreographer
wholesale
kast
unter
tuf
chasing
kathy
armist
discrete
autobiographical
societe
df
stav
bok
cout
##games
##onies
##hak
##illas
##encl
mous
expo
disturbed
sinn
dri
persona
bism
##adar
patches
charting
sensation
ily
##olish
##ahs
235
asymmet
reintrod
sot
##etum
exagger
worms
mani
subset
magician
devastating
doi
harley
culminated
copied
grenade
indirectly
arguably
inactiv
toe
louie
subdistrict
hoover
listened
patrols
gps
##uber
##uity
gras
abdom
knot
deplet
visibility
trunc
constance
hospitality
fearing
validity
##jit
clover
announce
balc
##alyp
staring
needing
dragged
##won
##atches
##unde
abdel
uz
cornelius
fiddle
bizarre
onc
smack
jurisdictions
execute
shre
friedman
newscast
##ın
##alin
forem
sai
tsunami
ea
sark
##jans
yorker
scandinavian
wherein
landings
##kien
aggression
sichuan
doping
gai
minsk
pioneered
jc
metropolis
bolivian
breeze
dough
lille
##oscience
josephine
##points
yel
extr
##quist
soo
howell
romanesque
intentionally
energet
##ileen
##inka
consolidation
forc
diptera
compassion
fran
##ogens
streetcar
redesigned
stellar
nationalists
grandparents
luca
thanksgiving
elephants
##termin
clue
syed
jewell
italians
gangs
##iem
inlet
valerie
storylines
rhein
leaned
criticisms
aeg
cripp
confederacy
##hoff
jackets
vaccines
scrib
flaw
lauder
melodic
como
ashore
##amination
standardized
jap
##opod
incon
loops
rashid
sampling
tile
##sv
persuade
dioceses
##imus
braw
##iked
reprint
##enched
focal
##inians
gases
axel
1763
backd
guerrero
faw
neolithic
parrot
crossroads
reinstated
ili
##alism
argy
drains
quir
godfrey
mahm
chronology
emancip
##arty
planting
wyatt
sami
bia
cried
##wari
##estine
pertain
apology
combustion
kier
meps
subgen
northam
muir
treasures
##making
rotor
obstacles
fishes
ostr
##tu
plata
mclean
##ickson
##lace
surplus
enforced
bunker
agh
##98
karab
contractors
oxfordshire
benedictine
fn
##nov
threatens
committing
composing
trous
sicilian
culminating
quay
plumage
caledonia
licenses
thieves
ej
impul
abduct
##nock
expose
##alie
baptiste
guantan
accordion
olaf
nex
##schaft
resurrect
ritch
##fires
##ivism
barcl
colorful
nobleman
208
reddish
malac
refurb
axle
narrated
otis
metamorph
ghetto
whal
heinz
remastered
##ilated
integer
cables
##avar
antip
winding
ranged
archery
emilia
301
goldberg
gradient
geograph
salzburg
categorized
##cell
bravo
amass
ornamental
abruptly
##mos
1300
amphibians
##vara
roadway
duct
multin
##rophys
jaguar
erupted
jard
##unas
heels
coca
barangay
##uded
ballots
approximate
adler
denounced
##uble
prevents
weightlifting
acron
##hner
overturned
whisk
390
##dell
shik
remed
entrusted
parallels
70s
kham
connie
socialists
##kovic
kalam
disqualified
##kat
biologist
moisture
##elman
clone
burt
futures
correlation
indicator
mitsub
ying
##arie
stric
fris
mausoleum
technician
checks
##orth
bong
shet
romani
olsen
rudolph
caracas
dagger
usaf
mald
awkward
wield
##press
leb
prud
waterfront
incorporation
unpubl
xxx
mongolian
caj
alessandro
##jara
ornament
mantle
##irs
chiang
photographed
convenience
dora
##uno
##ouncing
demos
##acia
blanche
ont
##fan
##icacy
ariel
yusuf
partisans
tightly
dissatisf
recalls
prasad
textiles
222
incap
remixed
canopy
quiz
profiles
detailing
veins
ausp
siding
##moor
arenas
openings
sherwood
intercontinental
sheld
supplier
convincing
proprietary
guantanamo
hord
##vale
forecast
emile
immense
casp
analyzed
ngo
##sm
odisha
hanson
telecom
mitsubishi
rockef
lasts
erd
billie
affinity
209
brac
destructive
vaz
##hole
##74
peculiar
inappropri
##ouk
zoolog
bahaʼ
##inement
obligation
liturgical
zw
##ignon
##ibles
estuary
turbul
accession
oceanic
evaluated
hirsch
extracted
overlap
dismantled
##erun
brink
bret
hooker
goldsmith
marijuana
##zew
desktop
fife
putnam
contributes
hezbollah
mma
antique
torqu
mastered
laden
disciple
postwar
greenhouse
340
ratified
shelby
djs
coding
intellectuals
cromwell
##imet
extrac
latitude
ferries
vanessa
mating
nail
##married
alterations
genealogical
##itating
blackwell
humour
refined
encourages
##ilin
##otrop
leuk
utilize
laughter
confidential
##mani
philips
weighted
tetra
ptol
mcmahon
bhutan
swindon
eton
##rans
topp
##acus
shia
freeze
stadt
willem
##icans
##ectic
##mental
hayden
chalk
forfe
tehs
continually
satire
stockton
suffers
cortex
enzymes
chooses
deposition
bryn
quote
differing
griev
vengeance
welterweight
##inform
dynast
##uven
crowded
wcw
endless
##prints
171
hiber
##cio
ung
boil
packages
thoroughly
gesture
germain
celestial
##otis
epist
lombard
##qing
##enheim
reh
deed
mcne
1768
dp
koll
owls
decreasing
abdomen
kiel
##dler
collects
portrays
executions
eliza
tach
##hei
spies
bij
1760
envision
criterion
enlightenment
##alypse
unpublished
meanings
benin
predator
aziz
jasper
enjoying
racecourse
bilateral
kk
musee
hitchcock
domest
##outed
hydr
paused
##yah
##engo
wishing
toad
##amel
emigration
##gger
doorway
franciscan
203
plut
rolf
semester
haplogroup
lowland
propeller
splits
massacres
sudanese
debated
##erd
conglomer
obey
olympiad
sabbath
unnecessary
bela
madhya
straits
gladi
painful
cynthia
ij
morality
choi
cockpit
asa
##antz
linden
mixt
immac
roofs
luton
offset
assemblies
##oxide
1800s
##eson
##atio
wii
emerald
procurement
denial
padma
exclaim
##bay
homicide
bengals
databases
##steps
peab
agon
courtesy
mergers
favoured
##ropshire
nuremberg
norms
1772
courier
shropshire
determines
responding
labelled
##ocl
relies
hath
laus
tash
##amped
morse
baths
##kus
infants
buttons
eos
mona
modular
strasbourg
grizz
reassigned
rockefeller
wj
spinal
mein
wetland
suicides
adaptive
batsman
##adena
phara
descript
phylogenetic
countdown
operatic
ensured
leic
##breaking
stony
bernstein
brenda
ade
hailed
oasis
uncomfort
##tus
##uran
dane
quota
curated
programmed
##obil
pledged
friction
##tsch
fibers
##56
elongated
##boa
nb
##gc
1400
##bottom
vuel
##stm
shand
doncaster
espana
mccall
mckay
restructuring
##ismatic
netball
jurist
ortiz
redis
##umbling
aac
gland
##inee
firstly
libyan
sympath
densely
khmer
poole
fumble
ragh
##rada
soloist
disguise
therapeutic
fender
unle
abyss
cen
##iola
##imoto
grims
amc
revital
imports
ambrose
yields
forehead
declares
##his
##owell
freud
melville
##ishers
probation
coconut
##reb
##like
wills
560
ciud
hench
saloon
mitochond
pavel
meteorological
plag
syllable
lilly
pb
##ел
haut
##alsa
sympathy
kelley
evaluate
consonants
confiscated
##gev
expulsion
unwilling
##omas
janata
turbines
lama
brace
tonga
enthusiastic
flotilla
##illus
contex
undercover
weimar
sonn
legged
limbs
neglected
glow
murals
racehorse
##gregor
verona
cooled
secession
entrances
marianne
montenegrin
coher
weaving
rematch
hurdles
python
annexation
ankara
lace
##ка
tobi
estadio
junta
dominate
psycho
adventist
##pered
protagonists
antrim
specialised
misunder
##cence
lyce
hoc
contexts
asphal
##opathy
##itsa
narayan
yelled
##yat
joanna
valer
brev
flanked
jia
enduring
inns
abram
usher
walters
transparency
deposed
spokane
ballroom
watford
thessalon
##zar
cheaper
amidst
neb
ghaz
365
##four
peabody
commiss
##henburg
objected
mandated
sardinia
##icians
marries
banksia
maze
##ethyl
guiller
urging
wain
##ık
heel
variously
lamps
##oglu
curios
termination
dispatch
hussain
580
calculation
clint
fulham
##oides
schoon
ideological
207
wink
customary
wk
##owicz
longhorn
##schild
##bey
bravery
alfredo
conjug
gutier
lange
##assi
scho
310
excurs
anthropologist
##bao
##rica
212
##anao
##khov
##mia
coh
saar
collaborator
analysts
##zek
wilde
resonance
comparisons
biss
kard
##tech
##adin
spurs
ames
218
mustafa
installment
besieged
leicestershire
##cars
builds
rainforest
manipulation
cigarette
jog
kik
shrug
barack
##liers
laguna
eliot
ava
glover
kuk
ugandan
chieft
barbar
bureaucr
servers
ridges
overhaul
ait
laund
##oxy
certificates
pearce
kear
mourning
rik
##sar
##lehem
notified
commuted
timet
sensory
katz
illegally
inventions
ua
ingen
owed
orang
clade
fairfax
trailing
foremost
generous
magnum
wanna
campo
organizers
plea
##dog
##whe
stry
fluct
conclusions
fij
undergone
akbar
passionate
ith
waltz
coincided
taw
##agna
osp
##bad
mahmud
illegit
shaman
pries
seville
##islava
shipwrec
##57
arrange
##ritt
##nard
brus
emperors
sergey
sloan
fayette
qin
frustration
exh
barlow
booklet
jessie
clav
cougars
inclusive
##itations
##ulg
##opolis
shepp
mainz
masonry
dino
##yk
masterpiece
##escence
enjoys
##rach
##elier
##ogu
texans
knoxville
proves
applicants
rewarded
attic
principally
drone
gypsy
##ог
monoc
scorers
analytical
##bud
staun
spice
diaries
poe
intercol
dolly
deserted
diminished
jacqueline
lena
##pard
unidentified
##ovi
minus
##lec
shades
costello
punished
qaeda
quer
subcommittee
##hera
spends
upward
lattice
##yst
theyre
murd
sarawak
enclosure
##igon
##illac
intric
##ussen
pleist
commemoration
nect
maturity
stray
scenarios
##erve
conceded
squash
hammers
penned
inherent
ramsay
reluctantly
miser
leafs
clemson
vort
##igence
##aryn
##ensky
nouns
nbl
uhf
lenses
##acons
35th
weighing
##ilic
transylvania
viva
dia
playboy
croix
##dag
biomed
42nd
collaborators
bethlehem
emilio
ness
rusty
mek
##encers
cpu
marlins
practitioner
kildare
wither
sedan
dok
lds
##ogly
whig
potomac
ordination
gma
refinery
apostles
##ght
##ensburg
supportive
successors
goldman
pins
##aq
cog
##zin
##igham
raped
##ogeneous
##ppo
pledge
fertility
sgt
multinational
outrage
skier
##ylus
dissip
ciudad
arising
diz
32nd
elevations
sahara
bourge
illuminated
harps
cheltenham
sabah
calcio
##dn
##san
maure
sala
bali
pyg
prospects
prospective
heron
terminals
pediatric
cache
##emption
kne
##weeney
loads
convinces
cephal
gail
##gle
##sim
carla
##ovirus
milestone
earnings
undertake
hary
##othed
bahad
1753
mcgr
squirrel
bray
croy
blanket
theresa
switches
leiden
parana
1840s
dispens
checking
tis
vos
wight
drained
malone
##uco
subchann
290
resisted
##intyre
##ilan
brach
annoy
corey
anchorage
panchayat
swap
natasha
organizer
landowners
##96
tele
relaxed
supplying
consonant
pep
prediction
bridget
spru
##pha
transn
housem
archbishops
##awat
angular
palazzo
circulated
nasal
gmbh
hing
whales
incub
slater
canadiens
colliery
bournemouth
webpage
scheduling
gaps
lied
slang
debbie
prosecutors
modelling
holstein
fungus
banc
dand
wv
shea
kickbox
rhythms
strokes
middlesbrough
khor
vp
quentin
cindy
platt
harness
specializes
anatom
gaston
plank
##anski
caring
rooted
##abil
manfred
##gram
##ressive
redund
paradig
peripheral
##nier
##quito
guill
apprenticeship
defences
conclude
nomencl
##atre
landfall
topology
##straße
approve
lobbying
excerpt
m1
yon
esqu
wandering
inverte
gundam
skyscraper
##pal
ict
##utant
ulrich
rainy
rotary
stylized
##ifiable
srin
vertebra
##irth
narratives
michaels
lydia
tuition
congregational
glaciers
yunnan
##upe
andrei
fernand
sars
reeves
uniqu
phosphate
eure
ignoring
flexibility
symposium
livery
gable
reggie
##klenburg
recycling
plun
hostilities
safeg
jaguars
joker
##51
patented
ritchie
tore
##vod
harrow
##banks
theorists
pleistocene
umar
##orse
turkic
embro
surveyor
convergence
440
##alysis
##ovia
##iscus
santana
sorcer
otter
rv
upwards
moul
##inating
waver
##guer
canonical
tornadoes
taur
##iidae
##verness
cheval
castel
garry
ambition
boca
cud
wow
nepalese
byrd
wizards
skateboard
gunther
yamag
digitally
avalanche
alright
flipped
preface
delicate
continents
##chett
pitches
eryth
guthrie
hewitt
pey
drummers
automobiles
sart
##thalm
interconn
##alde
##53
plast
parkinson
battleship
harmful
hinder
##zhen
syri
obe
baloch
sarat
domen
couns
zee
hee
seren
##mil
##58
coward
vampires
##73
##assium
provence
pathology
volkswagen
roost
presiding
downhill
damian
astro
lockheed
oxidation
metabolism
motive
zhe
mankind
authorised
tramp
##ptonshire
##odeon
exams
occident
brahm
buyers
pesh
##ος
thug
bov
youll
conscience
sikhs
apocalypse
elton
relinqu
northamptonshire
##viation
influx
cumbria
audrey
referees
xian
occult
burd
levine
dynamite
luftw
tuning
213
liberties
gaud
##grav
##erl
beit
wee
locke
stabbed
choreography
impose
invites
##imeters
selecting
1754
landowner
menn
£3
minors
slated
modernization
penang
sieg
exceeding
morrow
gideon
neoclassical
vogue
##jav
invaders
cyrus
34th
gangster
surely
desires
##tenstein
algebraic
faul
packet
moderately
##adam
bf
##pole
alman
##ifera
accusing
##onomy
pistols
browser
gutierrez
##ptions
grounded
disguised
##tal
coats
drilling
shareholder
dynasties
rework
380
##olet
imagined
cinn
hint
stationary
freemason
francaise
putin
galloway
fundament
newcomer
guillermo
eduard
grazing
marches
##hay
##zn
stables
sermon
palaces
directional
bartlett
refurbished
beers
hazardous
##mantle
objections
taekw
outward
imaginary
jem
leroy
connector
banquet
weights
##uckle
browning
insurgents
colchester
maud
thessaloniki
mca
judah
consulted
pean
lockdown
newest
retal
academie
lawsuits
obliged
patel
##ynamics
manny
espan
voluntarily
cascade
##iones
enig
disast
refur
outf
##4th
sliding
embraced
riff
##letown
##iyama
witches
betrayed
##alone
##avas
trash
##aira
##phin
revive
diverg
haifa
prophecy
priesthood
iro
kess
##mand
delivers
recognise
refurbish
cough
nfc
domination
likelihood
mcfar
##ycles
gwen
lola
spectral
epidem
lehigh
orator
##enbach
mei
##phalia
morg
campaigning
brasileiro
enqu
warr
histori
empirical
221
narration
landslide
ryder
tremendous
renn
##reys
##enco
swami
baylor
theo
##arist
yeoman
monkeys
leaked
donkey
chronological
aki
unm
barrels
##frame
agg
assistants
##hane
##iero
##iente
dov
##bull
foil
educate
transporting
bahia
##inging
##iris
unmarried
consulate
willard
##omia
##ophila
knocking
pornography
estero
mercen
retaliation
megal
uri
bres
shes
contender
hardcover
cavern
afb
knives
##ropolis
nostalg
coefficient
rana
lightly
mecklenburg
melanie
constitutes
naomi
480
##non
##pes
spouse
barrister
##gorod
balcony
ew
##zilla
juno
alderman
##vide
bestowed
digits
calculations
33rd
icons
rejects
hild
commitments
psychoan
porcel
dort
hamid
hourly
##cala
isnt
##ovsk
stripe
convenient
khyber
anthologies
##ignment
microp
cavity
synthesizers
pilgrims
armistice
##dre
predictions
kernel
##71
weekdays
federico
325
##ylie
pinch
bratislava
rosemary
l1
##ijn
##street
aggregator
suv
##udo
engined
211
steward
simultaneous
brentford
awaiting
vows
##uve
garbage
relieve
krasn
bids
vapor
disused
trophies
yates
##uis
instability
glut
fuselage
vind
breathe
##rafted
fx
##afar
protestants
diffusion
luftwaffe
##kies
footsteps
mythological
revolves
acceleration
pry
potassium
jihad
nairo
abused
demet
kiev
##hari
evid
wires
##estinal
heavenly
ecosystems
reliance
##ollen
pulmon
containers
nrhp
condemn
batters
##ryl
fremantle
1769
rhodesia
monterey
guggen
##wei
##cox
raises
bombings
duffy
##ije
cabaret
sentinel
deco
tink
##inch
unbeat
absurd
calv
rabbin
pasadena
mushroom
refriger
iod
syntax
claudio
bourgeois
gaw
##vili
##sty
##enga
##umba
cassidy
##occup
##lewood
clinics
conditional
##hun
##atical
leah
outlook
faa
bowman
journeys
faculties
purported
vita
##mie
compressed
buyer
urgent
unpop
nickelodeon
spectrosc
orchards
awakening
illegitimate
##heet
phoe
geologist
separat
ourselves
houghton
##journ
phu
keynes
insists
astrophys
capsule
envelope
flycatcher
hb
##dering
inappropriate
##ansky
snapped
excuse
ventilation
superheroes
rov
216
superstar
integrate
subtropical
vign
##orb
570
bogota
concealed
##akrish
##mined
gok
##geme
##itives
reminded
faded
digging
decreases
ecuadorian
chrysler
orchestras
taekwondo
##ecost
potent
captives
lindsey
tacoma
##andum
novella
cact
quasi
compliment
jakob
bounty
yur
degr
minas
ruben
siberian
gertrude
bk
jaff
kult
youve
natur
mandolin
engraved
carleton
assurance
milano
aesthetics
eph
poured
agust
defects
moonlight
asphalt
bored
##unken
resh
indict
warnings
medicinal
cebu
loyola
quintet
##ught
costly
rowe
rumble
glamorgan
##erton
fancy
hated
##estones
loneos
roan
bulb
pavn
##ayi
raided
halft
macqu
haute
yeshiva
gild
stevie
fulfilled
vila
##women
statistic
prevalence
remembrance
caravan
pw
donors
##legiate
kd
reputed
crowley
ninety
shaun
conject
1707
champagne
doubts
stefano
framing
paran
guilla
##byc
burr
verac
dinamo
liturgy
##oten
filters
initiation
negatively
##giene
vernacular
psychiatrist
fatalities
schuster
##ropy
visually
greenville
suffrag
aristotle
intercollegiate
##beth
##odi
reddy
jesuits
nero
repatri
hari
settler
symphonic
denny
sufi
psychiatry
lend
##lein
alonso
barnard
##anagan
##ffen
preaching
injuring
##virus
pollin
skept
thou
redemption
processors
spirituality
cecilia
elegans
electromagnetic
prakash
##atown
alicia
##ogon
melting
karim
##owl
patroll
##zu
##osia
zeus
unemployed
yukon
armagh
westbound
##vez
routed
loser
heroin
fru
crashes
epa
admissions
babu
plunder
damon
ribs
blowing
denomination
dorn
m3
coel
angl
wingers
##bridges
antioch
blows
confessed
spherical
mates
lively
malawi
cathy
psalm
noteworthy
##lik
##fill
##onite
##unch
absorb
mclaren
chased
generators
assaulted
##vist
carriages
christi
meridian
##plan
wooded
purchases
barnett
##bled
##rax
servic
counseling
itf
spines
##mentation
backl
participates
mystical
graffiti
vere
striped
bonif
barnsley
ning
##hana
inel
##actor
sled
keyboardist
jad
grapes
sanitation
evenings
mutiny
unavail
##izo
##aceans
wherever
##colo
##ologia
wolff
kangaroo
tuscany
uly
alta
ork
preferences
homo
rendition
nikki
sewer
carly
artworks
heroine
horsesh
1767
requesting
##ionage
alliances
219
envoy
byzant
pardon
blaze
valves
psychologists
favourable
sts
slid
commentaries
transverse
pensions
##robe
warns
autism
sonia
590
hemp
alzheimer
hards
alumnus
inspir
graphical
hygiene
fai
##olus
traps
repos
discretion
clutch
tid
chey
steiner
judoka
petals
astur
aspen
bernardino
taf
vida
handles
sensing
axi
cite
dary
##rost
pembroke
koppen
tobias
fries
cyst
reneg
undertaking
sver
sein
flock
aird
linguists
deliberate
uncomfortable
ike
javan
univ
trab
niche
ndp
##uya
##anko
businessmen
##ilitary
westphalia
melvin
torino
misconduct
tamar
1757
##ocytes
zac
jeep
tarn
carolyn
dependence
mercenaries
##iterated
kickoff
##asher
##odz
advocating
frigates
nakh
carc
avid
tablets
relocate
##allah
walled
montp
jimenez
##bei
recipe
##mb
inverness
chas
justify
humble
limp
rosenberg
460
locker
guggenheim
kaf
##54
sparta
1771
36th
kirch
1755
##mak
##stage
recoll
gloves
pena
##abas
shal
##ouss
freddy
bootleg
compartment
beckett
charadri
##opsy
exercised
antiquities
nairobi
grains
ska
dye
##pop
##chwitz
bett
shortlisted
prototypes
##zef
concurrency
yuc
liberated
robotics
congrat
dice
freezing
1762
exceptionally
storytelling
fot
chatter
ezra
minh
respects
superfic
##aline
fortunes
333
reelected
khalid
attribute
christoph
##axton
##hany
textbooks
scripture
stamford
fiona
##52
orion
invite
migrant
sill
##arde
eastbound
mounting
derive
mythical
##ranged
aeronaut
##jong
##inely
bei
shek
wehr
commemorated
acknowledge
tric
deficiency
##breaker
yahoo
asiatic
nino
spotlight
inquis
##82
ascension
bartholome
##lingen
gothenburg
advisors
seminar
disastrous
mace
##hav
##entes
##aina
denote
throated
arboretum
##achments
subl
denise
jewels
louisa
##holding
highlighting
searches
##fal
arched
bafta
hutton
contamination
##accur
acetyl
##kova
sarc
4000
vuelta
kett
newtown
cerro
spawned
eber
fad
##geons
mainline
camille
##lords
##inz
303
rupt
lichens
metaphys
hove
##onc
inaccur
sampson
##arb
vargas
raceway
undrafted
sorts
kott
yoshi
tome
##ivities
2a
ck
packs
##aten
phal
pickup
entertainer
1766
1765
clergyman
mcken
transports
##anooga
persecut
recipes
pentecost
facilitated
##emy
goodwin
breakup
biomedical
dusty
couch
hv
##olor
##ainen
immin
rump
reim
boon
richter
1689
blacksmith
phyllis
efl
madd
proceeding
banning
witchcraft
pets
##enham
desirable
knots
espionage
amalgamation
680
jy
chloe
archaic
bayer
takah
##ablanca
hov
##info
##anos
injust
widened
vitamin
guangzhou
cows
##igate
schoen
hara
patton
problematic
conversely
kinn
lour
imperson
bienn
improvised
piston
##chl
##waite
##opposed
tanner
coma
##ogl
useless
228
inquir
overseeing
rothschild
incorrectly
forged
gotham
obstruct
genealogy
euch
##js
apc
conducts
wiped
##icul
unopposed
postc
marta
hostages
cush
prag
auguste
sourced
libre
huber
guarded
conspic
tajikistan
mest
separates
##iras
filmfare
obli
kahn
disagreement
regeneration
phyt
attendees
isid
seph
1100
dangers
##hammer
captures
dharma
##oja
##sum
carv
discarded
coupling
babyl
miracles
weed
##eleine
configur
wf
##ovy
defens
futsal
saharan
generalized
suggestions
1764
##ricular
reprised
##inan
intermitt
640
##xley
manners
grouping
trojans
criticizing
wonders
vat
vascular
204
broom
bari
meng
redd
figured
slept
gerhard
bidding
hj
bayern
dunes
energetic
lipp
##isław
reese
chag
lao
superhuman
violating
crisp
lazio
famously
elmer
##apeake
buckinghamshire
jel
##once
pune
megach
##ilisi
##uw
schro
224
candle
improper
kaplan
commemorating
extingu
##hui
##lat
##rase
##ucer
endowed
radioactive
memorandum
akron
1745
lungs
kharkiv
##gol
ons
uneven
svens
sheldon
##masters
ashe
surfaced
bikes
busiest
bandits
hereford
saturdays
token
##ayers
herod
resett
capita
siam
plumb
dungeon
sequels
catchment
chattanooga
nomenclature
##zcz
citrus
balkans
##oby
consume
sawyer
##stitutional
sacrifices
faso
foreman
situ
cutter
meaningful
casualty
symmetric
tg
##anum
congen
langley
possessing
disturbance
jelly
donetsk
gearbox
dickson
##omics
prow
industrialist
cantonese
haryana
##rocess
versailles
sherlock
##arse
##staff
spars
##ieces
dalmat
##iaceae
berber
sniper
translate
sahib
##houn
##fiction
##upa
transforming
semiconductor
zer
##anner
westwood
cbn
konstantin
jut
encouragement
gravitational
grimsby
tnt
spiel
trams
##endo
1715
saff
##habi
kidd
eileen
headline
1830s
intensified
goaltender
sweeney
##bear
marjor
blooms
cylindrical
kaj
musica
revolutionaries
zionist
##84
##enta
porcelain
kite
staten
232
kali
spanned
policing
terminate
pulls
agreeing
anticipation
##gre
chao
adhes
##hent
skies
travellers
chords
disgr
musa
stephenson
shoreline
lw
nub
##imm
##fork
tbilisi
##hous
decca
1761
honourable
paramilitary
remarried
bakh
##hov
##gis
405
potatoes
ignore
johans
ascending
ligament
prejudice
##odo
passerine
seizure
gown
unix
epip
valenc
presentations
pott
aram
brant
intend
medicines
##gles
frankenstein
chancel
transcend
##izzard
nme
##ны
unint
arson
penit
aper
charming
katrina
sinister
chesapeake
##opolitan
mckenzie
fatty
zub
troll
patience
enn
##endicular
##paid
sweeping
abuses
severity
wwii
##estra
divis
definite
fors
quan
richest
wedge
##atel
intending
monitors
macy
convened
pursu
vojvod
##zia
bruck
guangdong
vickers
bolshev
##tok
arp
adren
weaker
goodwill
lookout
sinatra
cypress
guillaume
##63
dred
topography
vendors
tandem
interpreter
interventions
tuned
initiate
sampled
tasmanian
jumper
##video
##aner
inert
ama
graphs
wasp
regress
##avid
foothills
insurgency
##mind
neh
bernardo
dung
inad
lef
##helle
##ijah
detectives
sire
afrika
##uaries
245
hahn
gators
##ет
reinforce
congestion
susceptible
compelling
gris
goats
traverse
lore
coil
slade
##tree
##enet
##amu
adolph
upstairs
sellers
atroc
marius
peach
imposing
corr
curv
archival
attracts
spartan
olimp
bundle
##lang
abrams
##inta
##steen
adjunct
hellenic
##ppers
greeted
restless
accountability
##bonne
revolver
##itudinal
nau
ballistic
eury
gue
happily
##ridges
interdisciplinary
matthias
tic
asper
brest
adele
landlord
museo
coronavirus
##alls
##ograf
madeleine
exploit
##entiary
registers
monsoon
swin
oyster
saxophonist
fanny
##stroke
contention
meek
underwood
camou
encoded
unlaw
perpendicular
950
arter
thrill
novgorod
insights
paste
newscasts
cil
bem
305
uncont
##uper
bris
extrad
professorship
marketplace
pumps
manly
##oryl
edible
tanker
vegetarian
inflammatory
##pill
##usha
boring
neglect
##integr
protectorate
##itty
hume
pacif
merlin
bombed
automation
destined
pennant
olson
boroughs
eater
byu
whoever
sharif
galile
##uvan
apostle
sama
##iculture
##owska
pdp
folks
seminars
polk
electrified
creole
calligrap
immaculate
frau
trance
shattered
biennial
hana
harrington
sanford
fullback
dispro
intercity
seaside
4x
##idos
##unn
floral
balm
umpire
##7th
##edience
intu
##proof
flourished
seag
severn
##ovski
bresc
##iburg
valor
##irchen
allegheny
deception
##coll
##retti
ferre
pakht
connectivity
##hound
compelled
awake
lgbtq
abbreviation
gaj
pia
sly
##62
##angor
##ominal
racers
gamec
##onial
##iches
karel
encoding
mineswe
cortes
forthcoming
##ocarp
apples
wentworth
samson
occupations
38th
1756
lull
nv
secondly
osman
anchors
retailer
bahadur
##87
beaux
darius
repert
hadith
listener
europ
detector
camar
theorist
jiu
##ovol
diverted
sums
accountant
hilda
214
720
hl
furnace
##ibar
earls
hec
isis
bison
uw
##auss
consistency
earnest
jeremiah
griffiths
u23
compose
boogie
popularized
37th
ought
unpopular
fade
tect
xanth
zep
##inate
derrick
psal
multiplex
lithium
##economic
##orrh
researched
exploited
##opal
##inched
logs
baum
chaiko
woven
munro
accessibility
transformers
carver
taun
fuels
culinary
acronym
rr
protects
reigns
fargo
breeders
##abouts
spic
##icht
##fulness
techno
appealing
interfere
lately
##ivka
anybody
##akin
multiplic
hayward
cinderella
cents
polly
woodstock
60th
spartans
fenn
musk
invers
aquatics
ceded
##oused
plato
jamal
glucose
##yx
lifts
fantas
confederates
hormone
guido
youths
magna
##pleas
distributions
prosperous
##fighter
header
importantly
inevitable
burkina
##isches
##ounding
marguer
larsen
##cheon
auschwitz
##uche
belts
convict
depressed
238
credential
simpler
brackets
cip
ecumen
255
whitman
pereira
camoufl
jou
rada
temperance
##61
fra
1740
ophthalm
##width
##dl
tito
hunted
hapoel
perfection
orphanage
biotechnology
deuteronomy
##ouard
arturo
replic
macon
veneto
tyson
60s
##olm
##iferous
suites
literal
embank
anatolia
ui
intends
monmouth
cerebral
##andar
feeder
##ugawa
bordering
yielded
ropes
##good
outdo
gupta
chesterfield
uninhab
ica
papp
##comb
toh
denoted
shrink
dresses
wexford
cid
fey
foundry
frontman
nails
moniker
totals
sundance
##jid
##atius
##ietta
sprinter
transitioned
pancre
yao
goethe
regents
castes
sorted
haynes
rancho
resolutions
pounder
monit
hyun
nike
sorrow
nanjing
arroy
connolly
repertory
atkins
disrupted
parental
pretor
stamped
towed
halftime
suarez
pops
bick
##jos
palms
zum
##wold
##ovis
##ussy
walnut
babe
pokemon
##icos
##ondheim
johnstone
bernhard
algiers
unbeaten
linger
pum
beasts
medial
remnant
deteriorated
commissioning
##litz
##hon
animator
substitution
mourn
##xham
retention
smackdown
parted
##atters
kee
covert
scholastic
psychic
admirals
cerambyc
rosie
##ontinent
bharat
hawthorn
croydon
emphasize
explosions
dement
##ivas
##insk
pivotal
funer
polygon
bakery
serra
dyke
rodeo
coke
##itra
usb
terence
silly
gustaf
kyrgyzstan
##83
garfield
parry
divert
dreaming
cavan
tumors
suriname
nant
##ruk
genetically
gardiner
astronomers
adriatic
halle
analogous
trenton
gettys
imminent
##92
##writing
vertices
holloway
eud
nij
##icio
chaud
adobe
integ
semitic
counteratt
entrepreneurs
hoffmann
impaired
unavailable
eigen
hides
mj
silesia
muscular
unconstitutional
tehsil
gid
cyclones
rudy
rower
arises
fours
authorization
insol
philanthropy
coincide
guern
emigr
pockets
exemption
cummings
envisioned
##forward
drowning
bamb
yere
curb
inflicted
bangor
accumulation
lute
vf
vard
mediated
capitalist
carlson
highlanders
nico
##otine
efficacy
cleop
verdi
ventura
mysore
##riya
resent
242
rowers
assumptions
geschichte
sewage
rees
##esthes
mata
moines
quadr
novo
1640
magnes
shrubs
scrutiny
bitch
abort
##orsk
volvo
eck
booked
gaunt
comrades
##ifter
indoch
jozef
sediments
danced
programmer
touches
sync
polynomial
enthusiasts
##wah
##onis
indicted
repression
collided
ensign
tango
metabolic
##eny
rehearsal
bartholomew
disag
polished
frontal
##fair
convictions
bridg
sylvester
lighthouses
pann
mezz
churchyard
##affer
231
chinatown
fascism
##just
##icked
pax
malaria
danielle
kazan
implicit
monitored
baza
sow
rez
thatcher
prima
groom
baroness
suppliers
differed
canons
purse
suprem
smuggling
firefighters
eel
##geny
##abs
##gham
##ainted
##ukan
interrogation
eritrea
koc
##umbles
rye
strawberry
emancipation
fireworks
godzilla
legislator
ribe
intentional
fracture
##atia
impart
sexy
proliferation
bose
##chn
##azaki
easton
mcbride
540
cursed
catt
cern
##cely
humili
alfa
737
cerambycidae
f2
##од
dominique
b2
##ipps
halo
bilbao
tolkien
##omir
##igy
quo
##useum
bharatiya
destroys
titus
sociologist
rugged
hurry
lillian
augmented
hooks
thorpe
lending
johor
promo
kew
cheryl
dodd
fragile
nouve
fronts
ors
avatar
feminists
atheist
glorious
chry
##opt
subun
propose
perpetual
impulse
horseshoe
##reich
marr
##upo
staffed
bathurst
fluent
deprived
conglomerate
baird
1730
fronted
subtit
forks
1650
impressions
bmx
physiological
1a
##dad
thigh
butch
eclectic
brigham
schre
##elda
##erta
prevailed
salvage
##oplasm
shogun
##das
isil
handel
webber
pieter
hose
##idus
contempt
lai
florent
hypot
responds
mimic
panorama
tull
##ат
##screen
repeating
##viks
quantitative
alleging
beverage
superseded
##ев
fashioned
rpg
spruce
##lob
replaces
hyster
mirac
ignacio
e3
extermin
hostel
galv
bolivar
chik
relying
harald
refract
maccabi
electrification
receip
##chev
hillside
cloak
affl
mariano
appo
galerie
ester
moons
periodically
hungarians
giacomo
##gling
##cup
arrog
optics
cambodian
collaborating
coordinating
disintegr
halluc
honoring
confirming
murdoch
worthing
repay
napier
baptized
puzzles
##stedt
contradict
##acom
crested
symbolism
propagation
biochemistry
##zano
approximation
extrav
benoit
taft
ln
##olt
mariana
barge
microw
ensembles
##ograms
fairs
chrome
veil
223
closes
fungal
ineligible
neder
elastic
mosquito
surfing
1759
distributing
confucian
rie
wasps
centaur
realization
equatorial
clarity
simplicity
lennox
##meister
catfish
motown
##icksburg
cheyenne
stil
##undai
confessions
425
durban
microphone
consuming
gettysburg
bunk
fec
cohes
overr
anglia
distinguishing
dmitry
##tur
newborn
lining
bluegrass
shrines
cappella
dool
lausanne
##itia
burnley
395
baud
whiskey
520
buster
##9th
##arab
arithm
##ellas
lazar
##97
##iken
vitor
##flin
taxp
graeme
niet
##chief
lynx
xuan
##chens
##chat
shil
jeong
palatin
reservations
hearted
maxi
##build
telegram
##bag
##6th
##chia
disreg
blanco
prevailing
threads
hangar
fugitive
##rals
##cad
##ouin
##ilateral
##ovascular
voyager
adjustment
wrecked
boise
265
francais
mecca
stagger
xinjiang
safer
currie
severed
preschool
morale
waik
indicators
##amen
##rius
miniat
interiors
frei
emerges
donegal
encompassing
##kre
abby
phar
judging
gatherings
betrayal
##ал
haem
bertrand
impeachment
trenches
##annis
antit
realms
wikitable
rufus
akira
dickens
aleksandr
##lishes
prologue
##ichael
royalist
cannibal
##zynski
traumatic
zhen
unsc
opined
mala
condens
cosmopolitan
mounts
despair
julien
gabon
reappear
yerevan
##iticus
disclosure
petra
chemists
rowland
prepares
fishery
explanations
catering
adulthood
oricon
##weg
##iento
haver
brandy
pumping
torr
incidence
trait
comedic
bao
cai
##eles
wrath
launcher
morphological
u2
yarm
americana
overland
runaway
waller
petersen
overlooked
bint
taper
##fel
##ellschaft
##izia
defenc
roundabout
attendant
diversion
taxonomic
##istor
chipp
concessions
erg
attackers
##obas
sighed
sickness
cottages
ghar
lech
leib
scaled
introductions
hodges
haupt
wired
zor
occupants
bishopric
##ramatta
transmissions
cigarettes
tars
taller
##store
inverse
mora
psi
corrected
anecd
harcourt
freiburg
invasions
clues
fielded
errone
marguerite
loire
olds
morley
sailboat
expenditure
amphithe
foref
##bright
302
mixes
wingspan
masonic
cairns
craven
bonap
tsuk
magistrates
##но
andor
affirmed
##ophren
pentagon
bla
knob
scully
adjutant
vaudeville
carcin
quartz
calabria
lapt
rude
##astes
1710
##ausen
fisherman
orphans
spontaneous
wł
ym
##may
##ecki
##rophy
mara
##inders
salesman
ayrshire
##yad
##94
##ifix
cared
turnover
unfav
patty
vertex
marjorie
##idu
corona
mellon
curiosity
##zai
carav
##portion
helpful
casablanca
polyg
forerun
##odar
schn
invarian
217
montevideo
implicated
quarterfinal
dionys
astronauts
##acial
##sohn
amounted
##otox
##idable
beec
accom
moray
hazards
inconsistent
rbis
yves
##rash
cyrill
instructors
compensate
##adder
angie
solemn
39th
minimize
miocene
laval
disruption
guise
schedules
##marked
hn
js
milne
foreword
cadillac
##iata
moy
economies
proponents
hartley
harmonic
jewellery
reformer
organising
264
##kim
competent
navajo
conserved
gemini
##chal
hillary
ridden
arithmetic
ect
sukh
227
inspiring
woodpecker
kep
elgin
southernmost
##marine
palatinate
ghe
nip
##ianna
offenders
selangor
snowboard
barrage
##dled
##vier
##ignant
attends
doe
sumo
nonfiction
purity
obsessed
dunbar
appreciate
##stall
##indo
differentiation
correctional
##moon
##jes
cray
strained
vicious
isaiah
scandinavia
fits
kush
trident
recomb
minut
diamondbacks
reza
urg
##uchs
fg
##educt
##unkh
coating
vanished
##yrus
inventors
gastro
fd
vectors
empires
intrins
nago
vh
##oty
addison
archde
assassins
stac
##lea
##agements
coed
airbus
compiler
dietrich
stereotypes
riaa
##heviks
##eval
haas
##queh
silhou
dungeons
pubs
topping
stell
##ophe
moff
islander
naturalized
resembled
tiber
##lene
rebo
##aban
revoked
##aughlin
fatigue
remembering
enthusiast
bloomington
vm
bew
pha
##eki
scenery
guadala
mistakenly
sint
glauc
nuevo
eyew
clarkson
serialized
rendez
##93
celtics
tere
yev
groundwater
430
traject
jailed
pamphlet
bif
lh
##loading
rested
antigen
bodyguard
baccala
incredibly
dyer
welt
tee
smol
astra
neutron
poisoned
concordia
supplemented
guadalajara
thak
novak
truce
skid
articulated
breasted
630
annih
meritor
hallway
tarzan
ambiguous
massey
illustrate
riks
##ilingual
sabotage
cleopatra
jaws
relativity
mcke
pastures
threaten
iberian
outdoors
heck
prefers
melanch
averages
paraguayan
pixel
moc
ubi
induce
calculate
assessments
woj
leary
avenues
antibodies
plagued
pulmonary
aes
kiy
ima
salts
ballpark
nerves
myrtle
ih
kany
pines
##olit
##inkle
lucius
zombies
pause
rebirth
sharpe
domino
xml
##sef
clas
asserts
natalia
appellate
dhan
##abhar
drunken
reasonably
siena
goalscorers
qian
togo
caric
##okan
polyp
##ritis
blanch
burgl
luzon
hornets
consolidate
rave
inclined
crook
##develop
upside
##tone
midi
kei
replies
khar
barony
wilkins
lbs
sog
formulation
republished
##cea
remot
ats
defer
##appers
refuel
vertically
vikram
dewey
roar
##ionale
##chuk
originate
erwin
palestinians
##1st
##igal
##ushing
php
##linger
flattened
##omel
barrie
mueller
faults
airfields
cullen
610
intra
amour
janice
delle
##iflora
##fen
instituto
crucifix
##ograd
woreda
acanth
geophys
postmaster
weren
unauthor
##haj
enlist
schizophren
fos
joints
meiji
regulating
membran
battling
adi
doubling
gamer
stump
engagements
invade
##resses
madden
312
fb
waved
betting
establishes
##ichy
bobs
signalling
characterization
##emma
shortest
napoli
voyages
periodicals
yos
##ospor
schoolteacher
helens
hurried
aeros
weddings
sneak
vans
yp
mana
multicultural
drafting
##angelo
tiffany
hock
ara
canucks
maharaja
mentioning
1752
imagin
jared
##hester
owning
downward
northernmost
cambridges
295
zepp
baccalaure
thwart
afflu
##isma
trusts
1751
peninsular
brewster
examiner
baut
pint
rios
myk
memo
romano
##400
aqueduct
##sala
buffy
evolving
phoebe
coloss
hua
allevi
bicycles
gustavo
agrarian
lush
##oden
primaries
inspire
ehr
##aer
brod
oppression
chiba
##icki
veer
bankers
payload
oliveira
reefs
semb
##vil
parramatta
mandir
precedent
caucasian
refurbishment
systemic
colonels
enhancing
shipwrecks
##map
##nant
##uvial
foliage
rhys
commodity
fines
stockport
benefited
sall
##bak
##ganj
optimization
uter
##iard
qui
nomadic
salvatore
caliphate
schleswig
filipp
##burst
##rosis
compiling
herrera
cambridgeshire
zil
##rios
##ishu
abusive
##izh
coasts
printers
deportation
hepat
sui
shale
##astically
maroon
##omyc
fueled
pronouns
prist
palma
davey
cbe
vaj
##ocal
strains
justification
postdoc
243
traveller
negotiating
torpedoes
kuch
##f2
herbs
smir
sandp
ambitions
lpga
1648
yamaha
mcgraw
##unkhwa
fused
uf
##oil
##oqu
anonym
scattering
appra
culturally
lesions
invading
modify
yachts
atten
interfaces
meritorious
naga
isk
quakers
garment
rumours
zay
kingf
eastenders
hybr
yellowish
harrisburg
snooker
mith
shaping
serena
biel
testify
rollins
emphasizes
disagreed
##ancer
downing
1690
fw
vance
wim
##rone
alton
wareh
prescott
sentencing
lowering
cavaliers
ebert
erod
helene
confesses
humidity
msc
disemb
glance
oils
illustrators
prostitute
terre
404
##elez
sabre
haired
fixing
##fund
robber
caledonian
##aray
thistle
humanist
samoan
chaplin
maha
heiress
abandonment
treats
253
226
mccon
celebrates
crocodile
##otiation
antim
muddy
emotionally
kano
jumpers
seldom
hagen
##alds
regis
progressively
arroyo
decks
wallis
susqueh
huron
carthage
bakers
clippers
##ondition
antic
##zyk
fordham
mounds
##lach
##acious
superliga
calculus
manifold
outlaws
philanthropists
cuckoo
soto
soda
norwood
quarterbacks
saskatoon
mclaughlin
rte
outfield
##eping
chew
233
readiness
navarre
screamed
lazy
overlapping
wakes
##corn
abi
abdominal
featherweight
vineyard
##kap
##inov
2026
epstein
believers
sexes
laundry
safeguard
cune
dared
anomal
edged
ami
burrows
duran
aristocratic
##akura
softly
##acola
herring
##iceps
souven
internationale
humming
##obile
hyundai
##ophobia
phelps
backdrop
##orc
fla
swung
mcgee
motel
micron
seismic
##yuan
##mag
guiana
##gaon
bosch
hilly
bien
##million
noticeable
##ergic
##gir
swam
skirt
intervene
unicorn
enrich
larson
angered
argona
artef
vojvodina
##ichord
##antics
replication
broadband
##coon
raman
orchid
gossip
scorpion
mixtape
b1
##burne
gamble
neutrality
tray
lineman
guel
anno
horticultural
bitt
parano
basins
constructions
burgundy
excerpts
nol
archers
underside
##icolor
wiss
delg
botanic
mangan
differentiate
gunfire
sulph
lenny
cyrillic
##ococc
resurg
blizzard
transitions
walden
contracting
collaborate
nesting
sss
perseus
cooler
lauderdale
vell
exposing
zoology
nus
roach
blum
katy
pakhtunkhwa
mute
rewards
reestab
##ricks
barley
graded
garth
antisemitism
spaniards
pertaining
mce
##amic
##achan
crewe
slots
tyre
mulder
boilers
247
boarded
##ijo
##onder
##otho
sudbury
44th
lakshmi
auspices
##but
##esset
mez
duma
##bj
##idic
spreads
entrepreneurship
rast
tory
##arks
##osomal
awarding
comparatively
swinging
waterfalls
##ulators
divides
hawke
mcgrath
##mic
recess
requiem
karma
ironically
470
distributors
dysfunction
dann
##avis
elites
parked
seminal
renaming
javelin
malaga
billings
ritter
vertebrae
jd
chili
ultras
mccormick
##opers
guzman
delph
overseen
alek
tint
analyze
guerre
pornographic
rousse
gina
##oya
##icients
alkal
##imat
mango
262
svet
flashback
##runner
inverted
prab
shortages
robotic
levin
hilar
everest
kala
##ingale
slap
exploits
contaminated
contra
##coal
fabian
sidel
lukas
lengt
##cross
##aean
steamer
##film
sinai
syriac
##buck
abl
##tep
counselor
coefficients
##macht
marv
headlines
levant
spectator
harvesting
accompl
##ogg
1747
tianjin
mif
##fors
milford
##oleague
313
crustaceans
fuku
electrol
verified
bearer
cans
dots
vive
##heit
dept
saigon
ensued
functioned
blazers
gopal
##lech
brothel
##byn
salford
sirius
mech
rory
yue
yuki
mangal
sykes
turmo
cellar
necked
climbs
argyll
geographically
bourne
deng
xp
##eya
tanaka
samsung
orte
unitary
complementary
##opf
##onti
investing
hott
bandwidth
kurd
aviator
aet
bsc
musically
##indi
obliv
disneyland
krem
vulture
zi
remedy
karak
knighted
culp
filmmaking
inflammation
timetable
bhatt
##81
unex
peri
obstacle
jg
ufo
damien
reactors
valentin
kraft
##arg
##uder
buoy
stealth
guarding
predominant
##скии
510
seo
##izi
greet
penetration
ong
1720
generates
landes
gunner
disclosed
gyn
##igated
252
millionaire
maclean
1727
kup
nune
##zas
lark
housew
positioning
uninhabited
foam
cracked
odor
saxe
lynne
schultz
actin
1701
denton
invertebrates
croats
glove
motives
frescoes
##ecurity
deh
##ifol
satir
snout
groß
cooperate
conflicting
disgust
jams
wg
outsp
radios
shrugged
tides
coated
sait
practised
##ythe
stunning
##atable
##angana
pegas
seneca
sangh
liech
pasture
galician
rehabilit
hotspur
sury
##oler
##amus
crass
macintosh
toilets
pik
##cam
planc
grapp
redsh
elek
234
retreating
legitimacy
##atari
##ibur
montrose
airstri
perme
opium
285
informally
hymen
lectured
uppsala
macquarie
rani
##ieur
radcliffe
venk
bellator
neurological
cruelty
indefinitely
##rata
stare
leach
shov
jeans
atoll
##places
ascend
appropriations
wrexham
inhibitors
zal
##oamer
toro
proportions
nutrients
elsa
counters
matern
sails
unfold
nouveau
620
660
maize
randomly
##ед
munitions
evidenced
qb
vuk
##ivores
trojan
rowan
manipulate
lure
marlborough
urbana
antigua
##zow
##weig
##woods
flyweight
padua
authenticity
ursula
appendix
##nett
countless
provoked
salaries
introduct
groves
##bah
boomer
bullying
45th
tartu
malacca
oe
itt
monty
magu
taxon
cyclo
andrey
huskies
ljubl
shapiro
##oros
##olate
##iges
swans
pictorial
tripoli
nepali
athena
poultry
heng
##arck
asher
##ieux
murdering
hilary
##ishment
marche
ambigu
pyrene
c1
unman
cland
recession
commended
apps
demp
315
erica
comedies
disliked
rabbits
ered
yat
bobc
semantic
beads
earle
champaign
biologists
heller
1702
jarvis
apocaly
pensacola
ineffective
lobb
moj
304
reconcile
sheppard
fum
implant
stainless
ilo
##lid
amit
formulated
logos
cosmos
mateo
##blad
##ич
franks
carving
co2
westchester
darm
forcibly
diagonal
evangelist
4×
bie
ragn
##oner
avalon
cleans
crows
##odic
indec
smiles
hospitalized
priorities
essayist
mollusc
telenovela
glyn
##aber
75th
folklor
enrico
710
perch
encore
congresses
corrections
overwhelmed
spd
culver
tokugawa
pistons
eternity
nagoya
overly
discus
causeway
controllers
hostility
hurst
styling
paradigm
ys
clocks
##endish
alvaro
dhabi
##oese
##icill
chub
arjun
overhe
##uffs
fute
tna
##iane
exiles
shib
##orsky
regal
swat
analogue
puls
sokol
bismarck
fielder
aryan
booster
liable
##ophile
galactic
pitchfork
hodge
idle
pinned
expectation
configurations
u21
claws
marlin
robe
##issi
widows
piracy
disappears
bastard
untitled
bolsheviks
rotherham
##rani
##him
##acional
peps
query
standalone
badges
goddard
jat
##etano
midw
1748
ernesto
bonaparte
mub
vague
enraged
1680
##indra
louvre
ventral
thee
##athlet
##azon
simons
mcintyre
##azzi
tahir
turmoil
##jk
khat
##agua
clubhouse
watercol
obsession
bellied
torquay
##allus
sponge
defect
sprinters
harpercoll
redistrict
ail
##leader
edouard
electors
valign
csi
reichs
##william
gork
lister
scanning
purcell
messiah
mortimer
scarce
mabel
cg
ht
jens
penelope
lobes
nib
##para
loeb
totaling
homec
43rd
corvette
iteration
gans
##rush
boiling
artemis
tweed
caul
arcadia
tendencies
##assee
kinetic
jamb
marques
elijah
ember
dvds
petitioned
grady
scranton
forgive
kilda
mage
##gement
angr
spire
##prud
rods
ewing
ito
##etted
rhiz
tapest
libertadores
vineyards
evolve
corbett
yvonne
liechtenstein
##ctor
agost
##atten
grassland
cio
alchem
decid
distortion
judd
reacted
##rr
conch
myri
eastman
hindust
outgoing
glendale
attacker
fleetwood
crashing
superiority
desperately
pricing
longitudinal
coppa
negotiation
cabr
wondering
cardiovascular
prok
##ucher
titanic
##umal
manson
disob
##hna
hydrox
gillingham
cafeter
unfortunate
vogel
blossom
##rott
nominate
##uchus
prostitutes
sigh
##91
##ilies
##ayashi
shiny
phased
consoles
snail
dictator
inadvert
pills
##antically
martian
urine
henley
fiesta
##ptive
##enskan
##web
presses
horrible
vulgar
stuffed
siemens
parcel
slick
scripted
anac
chico
plough
dutton
backstroke
oldies
burrough
cylinders
veracruz
##acic
scent
##ideae
##weed
jock
l2
##ugi
falsely
poznan
karabakh
suez
heming
cristina
futebol
brains
manned
efficiently
renf
scotch
harpercollins
lash
zed
##emus
##unks
idf
farmhouse
kissing
toxicity
chevalier
ie
##stru
41st
answering
procedural
##zk
confinement
friendlies
medici
guerra
sachs
thematic
##escens
1688
fibre
fijian
kof
tipp
technicians
jurisprud
ingram
shouting
submissions
##quil
perl
euroleague
researching
societal
slayer
succumb
fitzroy
recounts
frey
transforms
branched
xiang
415
messina
hydrol
pretoria
nasty
##ucco
warmer
ballard
dunlop
##azu
beaufort
##owoomba
toowoomba
marque
notch
1714
gillespie
vood
brist
rochdale
nautical
introductory
##estar
warlord
novelty
princesses
narrower
scandals
##oppy
relevance
##asio
##rots
chast
principals
disagreements
copp
hoax
1661
shamrock
vassal
continuum
stalled
helmut
shams
scare
251
erad
nxt
##ieve
repuls
jeop
godfather
chapels
crafted
jai
##jj
examines
##ensk
##hesh
verand
kochi
straightforward
##rok
##iales
##asses
##ameda
308
maharaj
nang
thru
mutually
##svenskan
##igent
edna
##obl
confirms
navigator
kx
preca
hendrix
drafts
911
unfor
draper
footpath
classmate
internationals
401
##iyo
sparse
bolshevik
jericho
naive
gardener
##hetical
##rative
##ilio
speculative
aven
discern
quezon
affiliations
bjp
offseason
knesset
hamas
traveler
bullock
thermod
takeoff
lx
##ит
##atism
showtime
finalized
whitehead
jurgen
maureen
yash
##cote
##imba
marlow
royale
initials
mercenary
schubert
##itures
eyeb
1685
krai
##kick
prent
slides
balt
fag
##ια
##ribes
##lette
solv
##govern
cumulative
inputs
hellenistic
conspicuous
tard
yol
woodrow
karol
lieu
wonderland
caleb
nectar
faulk
nen
xing
##roots
enrol
sermons
harlow
angu
ecoreg
empowerment
hybrids
intrac
mina
sonar
breakout
##iyar
jaya
lyle
rour
vanish
##ronic
projections
##liche
fairbanks
amassed
biennale
sine
##zys
inuit
##obacter
bibliothe
cosmet
extrater
fren
thereof
imply
friars
272
princely
##modern
nueva
nocturnal
##osch
australasia
activate
caterpill
synchronized
##azy
bianca
##river
thuring
##hny
formidable
cartridges
freedoms
rallies
ljubljana
scoot
maynard
supplements
verge
bergman
disturbing
supremacy
a4
pank
yous
##bial
octopus
wrestled
##halt
wehrmacht
relent
recognizable
imb
##anea
note4
1741
##fleet
ecumenical
rodents
lieutenants
monde
heinemann
injustice
##vig
ono
creations
248
macbeth
computation
lol
##lab
##vous
##udge
fei
breth
intervened
analyzing
binds
disadvantage
wavelength
aleg
brim
horseback
satisfying
susquehanna
epp
viper
##kent
charcoal
mermaid
pollen
squeez
##orca
sato
prosecuted
rss
gres
glider
gentry
fontaine
mobilization
nid
waff
xm
coincident
brabant
trivial
fp
rens
##arna
##ctv
navarro
skeletal
zack
##ær
mule
typef
argyle
viewpoint
falco
lansing
ocl
pans
##500
##orable
southland
229
husbands
##anity
neph
downfall
professions
gems
hamb
nano
zav
##bush
##anya
bek
grill
eared
posing
yeast
forums
subcontinent
##iram
##ocross
##arten
##erno
fortification
ambushed
necklace
buss
webc
specify
impending
muj
muff
martyn
##jevic
на
alvar
cheet
elevators
optic
integrating
kreis
salamanca
subsidies
##estag
cradle
1620
booking
widening
pathogen
tanya
shandong
mitochondrial
yeomanry
lop
maitland
bist
itiner
exited
grasp
endorsement
pinto
##bius
##eliness
tristan
##ellier
carole
craters
classmates
showcased
ee
lakh
w1
helpl
taluk
batter
southend
nasir
bromwich
##akt
achilles
subjective
toulon
molina
pavement
##olian
##ariate
paddle
aubrey
krieg
westfield
premio
##toral
experimentation
orthodoxy
ccp
residues
migratory
lothian
##lebone
unreal
orr
badger
greensboro
compatibility
huts
iata
enfield
##gean
denying
stanisław
##organic
##champ
nara
militar
labyr
tailor
bmg
##lip
cares
coe
macleod
gottingen
gant
reis
reigned
amrit
guo
estud
cracks
palais
synonymous
summarized
##pow
magh
jordanian
disconn
silesian
sooner
##broken
vinci
laughs
mcguire
paisley
cib
fide
[...]
